<unk>	0
<s>	0
</s>	0
<pad>	0
▁ה	-0
▁א	-1
▁ל	-2
▁ש	-3
▁מ	-4
▁ב	-5
ים	-6
ות	-7
▁ו	-8
ני	-9
▁כ	-10
▁ע	-11
▁י	-12
נו	-13
בר	-14
▁ח	-15
▁את	-16
וד	-17
ור	-18
▁של	-19
▁לא	-20
זה	-21
יו	-22
ול	-23
▁ר	-24
▁ת	-25
ית	-26
שר	-27
▁המ	-28
▁לה	-29
▁נ	-30
יה	-31
די	-32
בי	-33
נס	-34
וא	-35
▁הכ	-36
▁על	-37
רי	-38
לה	-39
▁אני	-40
וק	-41
נה	-42
▁פ	-43
תי	-44
▁ג	-45
וב	-46
נסת	-47
לי	-48
▁זה	-49
ומ	-50
יר	-51
ון	-52
▁אי	-53
מש	-54
▁חבר	-55
▁ק	-56
▁הא	-57
▁שה	-58
▁הכנסת	-59
▁מה	-60
▁ד	-61
▁הח	-62
יב	-63
רא	-64
שב	-65
שה	-66
▁הי	-67
וצ	-68
מה	-69
את	-70
נח	-71
בל	-72
אל	-73
וע	-74
ין	-75
יל	-76
ום	-77
▁ס	-78
נים	-79
כל	-80
יות	-81
▁אח	-82
נחנו	-83
דו	-84
▁צ	-85
ופ	-86
▁במ	-87
▁וה	-88
▁בע	-89
▁וא	-90
יד	-91
▁הע	-92
▁כל	-93
▁הת	-94
▁בא	-95
▁שא	-96
▁היו	-97
ודה	-98
▁גם	-99
▁ז	-100
יע	-101
רו	-102
▁הצ	-103
▁הוא	-104
▁הש	-105
יש	-106
נות	-107
יק	-108
לא	-109
בה	-110
▁מא	-111
ראש	-112
▁אות	-113
▁יש	-114
שראל	-115
▁למ	-116
נת	-117
▁שמ	-118
▁אנחנו	-119
שים	-120
רים	-121
וח	-122
עת	-123
▁נו	-124
▁הזה	-125
▁אבל	-126
יים	-127
▁לע	-128
מו	-129
▁מי	-130
משלה	-131
▁הז	-132
▁לפ	-133
▁הה	-134
מת	-135
▁הפ	-136
דבר	-137
▁מש	-138
▁הר	-139
בק	-140
▁תודה	-141
▁או	-142
ומר	-143
דוני	-144
דר	-145
כול	-146
▁אדוני	-147
טי	-148
טר	-149
עה	-150
▁מס	-151
▁ישראל	-152
▁מת	-153
▁בה	-154
▁עם	-155
▁לי	-156
▁בש	-157
▁לח	-158
▁הק	-159
▁אז	-160
יא	-161
▁לש	-162
גד	-163
▁ול	-164
▁רוצ	-165
וס	-166
שות	-167
▁מע	-168
▁כא	-169
▁הס	-170
ינו	-171
▁כי	-172
▁חברי	-173
דים	-174
שא	-175
▁הב	-176
מר	-177
▁אם	-178
כם	-179
▁מק	-180
▁וע	-181
דה	-182
וג	-183
▁בי	-184
וו	-185
מים	-186
▁היא	-187
▁שב	-188
▁החוק	-189
▁רא	-190
▁בת	-191
כן	-192
יון	-193
▁צרי	-194
▁אתה	-195
רב	-196
רה	-197
דת	-198
כים	-199
▁הממשלה	-200
לים	-201
ושב	-202
פר	-203
▁לק	-204
▁היה	-205
▁חוק	-206
▁ט	-207
מי	-208
כח	-209
רח	-210
▁בח	-211
ורה	-212
יי	-213
▁רוצה	-214
▁היושב	-215
▁וב	-216
ותר	-217
כה	-218
לו	-219
▁השר	-220
▁דבר	-221
שו	-222
כו	-223
▁מצ	-224
▁מח	-225
אה	-226
▁הם	-227
מן	-228
פי	-229
מצ	-230
▁רק	-231
▁לו	-232
נית	-233
▁יכול	-234
פשר	-235
▁הג	-236
00	-237
▁שר	-238
וש	-239
▁אין	-240
▁לב	-241
▁הזאת	-242
עות	-243
▁בר	-244
▁מאוד	-245
▁אומר	-246
דינה	-247
▁יה	-248
▁לת	-249
▁המש	-250
רת	-251
▁רבה	-252
▁בס	-253
▁יוד	-254
טח	-255
כת	-256
▁היום	-257
וז	-258
▁2	-259
▁לך	-260
▁שק	-261
שוב	-262
ולי	-263
יבור	-264
▁אחד	-265
וכ	-266
▁אל	-267
▁פה	-268
▁נוכח	-269
נשים	-270
▁ומ	-271
שי	-272
פה	-273
חר	-274
▁יותר	-275
כש	-276
ירות	-277
▁שנ	-278
עים	-279
▁ואני	-280
יג	-281
ולם	-282
אים	-283
לת	-284
▁כך	-285
▁ולא	-286
שת	-287
קצ	-288
לט	-289
דינת	-290
יום	-291
▁בכל	-292
▁נגד	-293
יצ	-294
▁שע	-295
▁כאן	-296
רג	-297
חות	-298
▁עוד	-299
▁1	-300
▁בו	-301
▁שלא	-302
מות	-303
פת	-304
▁לס	-305
▁פע	-306
▁לנו	-307
▁צריך	-308
▁כדי	-309
אי	-310
גיע	-311
בקשה	-312
▁לצ	-313
▁עו	-314
לק	-315
כות	-316
▁בכ	-317
▁בק	-318
שרד	-319
פט	-320
▁בבקשה	-321
גם	-322
▁"	-323
▁להיות	-324
יס	-325
▁ראש	-326
צב	-327
יתי	-328
כשיו	-329
▁הצעת	-330
דם	-331
▁מכ	-332
▁הנ	-333
▁שהוא	-334
▁אינו	-335
▁בעד	-336
חד	-337
פק	-338
בוד	-339
רות	-340
וך	-341
▁אתם	-342
וי	-343
ניין	-344
גיד	-345
חת	-346
▁אותו	-347
▁שי	-348
▁נכ	-349
דברים	-350
אות	-351
חה	-352
עי	-353
▁די	-354
▁חושב	-355
נושא	-356
בות	-357
▁הד	-358
פים	-359
וף	-360
▁להת	-361
▁הבי	-362
▁לג	-363
חי	-364
דות	-365
ילו	-366
▁שיש	-367
יתה	-368
▁עכשיו	-369
▁בג	-370
ולה	-371
ער	-372
▁כן	-373
▁זו	-374
▁חברת	-375
▁ממ	-376
▁להם	-377
ורים	-378
▁אמר	-379
▁וח	-380
▁חי	-381
פל	-382
▁האלה	-383
קים	-384
▁כמה	-385
▁כמו	-386
נט	-387
וט	-388
▁כול	-389
▁בב	-390
▁נת	-391
וני	-392
▁לכ	-393
▁לעשות	-394
▁יודע	-395
▁כבר	-396
▁עד	-397
ונה	-398
לות	-399
▁שאת	-400
▁זאת	-401
▁בצ	-402
▁באמת	-403
▁שלה	-404
▁טוב	-405
רט	-406
▁אותם	-407
בין	-408
▁למה	-409
▁לפני	-410
▁בפ	-411
▁וגם	-412
▁בין	-413
שהו	-414
▁שני	-415
מוד	-416
קציב	-417
▁שאני	-418
▁עצ	-419
▁הרבה	-420
לח	-421
▁20	-422
▁שם	-423
▁המדינה	-424
▁אחר	-425
▁מב	-426
פור	-427
▁אמ	-428
ירה	-429
קה	-430
▁שאנחנו	-431
▁ממש	-432
▁וש	-433
ברה	-434
אר	-435
▁ני	-436
טחון	-437
▁שלנו	-438
▁כמ	-439
▁יע	-440
▁וכ	-441
יכ	-442
▁שלו	-443
▁אנשים	-444
▁לכם	-445
גב	-446
ווה	-447
ונים	-448
ועדה	-449
▁במק	-450
צי	-451
בודה	-452
▁תק	-453
▁להצ	-454
ביר	-455
▁לד	-456
קות	-457
כי	-458
▁הציבור	-459
בור	-460
ולים	-461
▁איך	-462
ציה	-463
סף	-464
גע	-465
▁שזה	-466
חס	-467
▁בני	-468
▁לחבר	-469
▁בד	-470
▁ולה	-471
▁שת	-472
▁מדינת	-473
שמ	-474
לב	-475
זרח	-476
מין	-477
ניות	-478
▁מפ	-479
▁שלי	-480
ינוך	-481
רצ	-482
▁יהיה	-483
▁הו	-484
יאות	-485
▁מבק	-486
מד	-487
וצר	-488
▁אפשר	-489
▁אחרי	-490
בים	-491
ברתי	-492
▁גד	-493
▁שהם	-494
ירים	-495
ברים	-496
ניה	-497
בו	-498
▁ואת	-499
▁דר	-500
יקה	-501
▁חשוב	-502
▁ועדת	-503
▁שכ	-504
▁יצ	-505
גן	-506
ביא	-507
▁נע	-508
רץ	-509
ראה	-510
▁כנסת	-511
▁נא	-512
▁אלה	-513
▁לכל	-514
▁ות	-515
ומי	-516
רק	-517
ביע	-518
▁שנים	-519
▁פעם	-520
מיד	-521
▁-	-522
טה	-523
קב	-524
▁נמצ	-525
רכ	-526
▁יושב	-527
▁נכון	-528
ואה	-529
זור	-530
סת	-531
▁האח	-532
יהם	-533
יך	-534
ורת	-535
▁שח	-536
וץ	-537
מוק	-538
סק	-539
▁אלא	-540
▁בית	-541
▁אפ	-542
זר	-543
▁אותה	-544
ואלי	-545
▁חלק	-546
ופן	-547
ובן	-548
▁כש	-549
▁לר	-550
זו	-551
ריאה	-552
שיב	-553
▁מיל	-554
יני	-555
לל	-556
▁יום	-557
▁בן	-558
▁הרי	-559
▁תה	-560
▁משרד	-561
ריך	-562
זכ	-563
וכל	-564
▁להגיד	-565
צל	-566
יותר	-567
▁לומר	-568
▁(	-569
ודם	-570
▁כבוד	-571
מור	-572
▁רוצים	-573
פות	-574
▁הראש	-575
בד	-576
סי	-577
ופה	-578
▁אולי	-579
▁אזרח	-580
▁שנה	-581
ביל	-582
▁להע	-583
▁יל	-584
▁אחת	-585
ודי	-586
▁צריכים	-587
▁המק	-588
▁מדי	-589
▁אלי	-590
ועדת	-591
▁המשפט	-592
וסי	-593
טור	-594
▁שלהם	-595
▁מג	-596
חים	-597
עתי	-598
▁וזה	-599
חיל	-600
▁בלי	-601
לם	-602
▁האוצר	-603
ואים	-604
▁הכול	-605
טרה	-606
טים	-607
צת	-608
▁בנושא	-609
נגד	-610
▁המח	-611
עו	-612
▁עוב	-613
תיי	-614
▁הדברים	-615
תיק	-616
▁אור	-617
▁לדבר	-618
▁הט	-619
000	-620
▁למע	-621
▁דברים	-622
▁תע	-623
תיים	-624
▁שהיא	-625
▁לכן	-626
▁רבות	-627
▁עמ	-628
לכ	-629
▁למש	-630
▁מו	-631
אן	-632
▁חד	-633
גי	-634
▁דקות	-635
▁יודעים	-636
ומרים	-637
עם	-638
כויות	-639
▁שאתה	-640
▁הייתה	-641
חו	-642
▁ונ	-643
▁הבר	-644
ואליציה	-645
ינ	-646
,000	-647
דובר	-648
▁3	-649
▁ולכן	-650
דרך	-651
▁קודם	-652
▁שצ	-653
▁במש	-654
בא	-655
▁אדם	-656
▁201	-657
▁כה	-658
▁החינוך	-659
חלט	-660
ספים	-661
▁באופן	-662
ורך	-663
שוט	-664
▁שום	-665
נון	-666
▁אפילו	-667
▁התק	-668
▁הוועדה	-669
▁פר	-670
▁נפ	-671
סים	-672
ודים	-673
גר	-674
▁הנו	-675
▁חייב	-676
▁בז	-677
שית	-678
ניים	-679
או	-680
▁הול	-681
פו	-682
▁הל	-683
▁אינה	-684
ובה	-685
▁לתת	-686
ידי	-687
טוח	-688
אפשר	-689
צם	-690
וכנית	-691
▁קור	-692
▁שלך	-693
▁הנושא	-694
חק	-695
▁אינ	-696
בת	-697
▁לנ	-698
▁האם	-699
מוקרט	-700
▁פת	-701
ומות	-702
ונ	-703
-1	-704
▁התש	-705
▁בישראל	-706
צה	-707
".	-708
▁ממשלה	-709
▁ואנחנו	-710
▁הדבר	-711
▁גברתי	-712
▁טי	-713
▁אף	-714
▁כפי	-715
▁הדי	-716
אלי	-717
לתי	-718
▁האחרו	-719
▁אס	-720
מנו	-721
רבים	-722
▁לט	-723
ילים	-724
▁משפ	-725
",	-726
▁הלא	-727
▁מז	-728
▁הזמן	-729
צבעה	-730
וזיצ	-731
-2	-732
רבי	-733
צעה	-734
ברי	-735
▁יד	-736
▁בגלל	-737
▁במדינת	-738
▁מדבר	-739
רון	-740
ברת	-741
וזיציה	-742
▁אגב	-743
▁משהו	-744
▁ידי	-745
יבה	-746
▁ביותר	-747
▁שהמ	-748
▁שבה	-749
▁פשוט	-750
לך	-751
סטי	-752
ופוזיציה	-753
▁החלט	-754
נייה	-755
▁דו	-756
▁בכנסת	-757
תיקון	-758
▁בנ	-759
ישוב	-760
▁ציבור	-761
▁מבקש	-762
מון	-763
גה	-764
▁אית	-765
ילות	-766
▁להפ	-767
▁בכלל	-768
▁כאשר	-769
סה	-770
▁כת	-771
▁שלוש	-772
▁הביטחון	-773
עיף	-774
▁הייתי	-775
▁חוד	-776
תה	-777
בע	-778
▁במקום	-779
▁בבית	-780
▁הזו	-781
קיקה	-782
▁לשר	-783
▁והוא	-784
ומים	-785
▁מט	-786
▁תח	-787
משיך	-788
▁כזה	-789
▁לפי	-790
כר	-791
ולות	-792
▁הרב	-793
תק	-794
▁נוכחת	-795
▁הלי	-796
▁יק	-797
▁בסדר	-798
▁תהיה	-799
▁חס	-800
תם	-801
▁כשה	-802
▁רצ	-803
ליט	-804
▁כמובן	-805
▁להס	-806
▁בחוק	-807
עד	-808
צעת	-809
על	-810
▁דרך	-811
▁העבודה	-812
ויות	-813
▁יכולים	-814
▁אומרת	-815
יעה	-816
רכז	-817
טל	-818
▁ההס	-819
▁4	-820
▁מר	-821
יוק	-822
▁בוא	-823
▁חיים	-824
▁תקציב	-825
זק	-826
▁נצ	-827
רבות	-828
וות	-829
ניהו	-830
▁לקבל	-831
חוק	-832
שובה	-833
▁עדי	-834
▁המס	-835
▁שאין	-836
▁במס	-837
ירת	-838
▁ועל	-839
▁איזה	-840
▁סי	-841
ומה	-842
וליט	-843
ידה	-844
▁עושים	-845
רוש	-846
פול	-847
רבית	-848
יבות	-849
תייג	-850
מעות	-851
▁הור	-852
▁ביק	-853
▁שש	-854
▁קשה	-855
שבת	-856
נהל	-857
גים	-858
▁נוס	-859
צוע	-860
▁מוצ	-861
גל	-862
▁מקבל	-863
▁נה	-864
▁אותך	-865
שבוע	-866
▁עשר	-867
▁בתוך	-868
▁כולם	-869
▁נח	-870
מק	-871
▁איש	-872
▁לזה	-873
▁לגבי	-874
▁נושא	-875
▁שבו	-876
▁מיליון	-877
לסטי	-878
▁תש	-879
זאת	-880
וחה	-881
צע	-882
▁מקום	-883
▁אשר	-884
▁מגיע	-885
ותו	-886
▁הן	-887
▁כאלה	-888
▁עומ	-889
▁אמרתי	-890
מא	-891
▁5	-892
▁בצורה	-893
▁סגן	-894
▁קיב	-895
ינוי	-896
▁עושה	-897
▁אחרת	-898
יוני	-899
ודות	-900
▁שאמר	-901
▁מדינה	-902
▁נש	-903
▁מדברים	-904
▁שהיה	-905
תייחס	-906
▁ויש	-907
▁לל	-908
לחמה	-909
ומית	-910
▁טר	-911
▁שגם	-912
▁נק	-913
לום	-914
▁מול	-915
▁נות	-916
נק	-917
▁הפנים	-918
▁בעצם	-919
▁נתניהו	-920
▁שקל	-921
יקר	-922
היום	-923
▁אחרים	-924
יוון	-925
▁אומרים	-926
▁המע	-927
▁התח	-928
▁בזה	-929
▁המצ	-930
▁רואה	-931
▁מד	-932
▁בדיוק	-933
נסה	-934
בח	-935
▁הבריאות	-936
ביב	-937
▁המשפ	-938
נתי	-939
גיש	-940
יח	-941
▁מער	-942
▁זמן	-943
ורות	-944
ראות	-945
▁הכי	-946
▁לחוק	-947
▁יח	-948
יונים	-949
),	-950
▁מדובר	-951
▁שקלים	-952
גרת	-953
▁ביט	-954
▁אותנו	-955
▁אנ	-956
▁התקציב	-957
▁מכל	-958
▁בעניין	-959
▁הגד	-960
▁מנ	-961
▁וכל	-962
▁שכל	-963
▁קט	-964
▁שירות	-965
▁שצריך	-966
▁ההצעה	-967
▁לבי	-968
▁מבי	-969
ריות	-970
דק	-971
רגע	-972
▁הרו	-973
▁בוועדת	-974
בורה	-975
▁פחות	-976
יז	-977
▁לפע	-978
שויות	-979
▁הכלכ	-980
▁כולנו	-981
▁במה	-982
▁בתי	-983
עט	-984
ופו	-985
▁היל	-986
וקא	-987
▁ואז	-988
▁בהת	-989
▁איפה	-990
פקיד	-991
ירוש	-992
▁אותי	-993
כון	-994
פיק	-995
וקה	-996
▁שאתם	-997
▁6	-998
▁ככה	-999
▁נמצא	-1000
▁ממשלת	-1001
▁לאחר	-1002
▁יחד	-1003
▁ביום	-1004
▁מקווה	-1005
▁בנו	-1006
יוחד	-1007
▁האזרח	-1008
▁מוס	-1009
▁ללא	-1010
▁ומה	-1011
ונות	-1012
▁בראש	-1013
סיק	-1014
▁שנייה	-1015
משפט	-1016
גת	-1017
ופים	-1018
ליך	-1019
ערכת	-1020
▁העם	-1021
ואל	-1022
ומת	-1023
וצה	-1024
▁שיה	-1025
▁הדו	-1026
▁שאל	-1027
▁קר	-1028
▁הבע	-1029
▁עדיין	-1030
▁להביא	-1031
▁בתח	-1032
▁קצת	-1033
▁גדול	-1034
ורי	-1035
▁ועוד	-1036
ירוע	-1037
▁העוב	-1038
מנ	-1039
▁וק	-1040
▁ילדים	-1041
בוע	-1042
▁בשביל	-1043
ילה	-1044
▁לעצ	-1045
▁חבריי	-1046
▁כסף	-1047
▁הישראל	-1048
מול	-1049
▁רואים	-1050
אב	-1051
▁שפ	-1052
▁השא	-1053
דמ	-1054
▁בפני	-1055
ניתן	-1056
▁ההת	-1057
צר	-1058
▁מבין	-1059
אום	-1060
ובת	-1061
▁שהת	-1062
ודית	-1063
▁בתק	-1064
סור	-1065
▁המת	-1066
מוקרטיה	-1067
▁להעביר	-1068
▁משפט	-1069
טו	-1070
▁ית	-1071
▁חשב	-1072
ילת	-1073
▁בקריאה	-1074
▁עליו	-1075
▁ואם	-1076
▁בעולם	-1077
▁עוברים	-1078
▁מוכ	-1079
זע	-1080
וציא	-1081
שק	-1082
ניס	-1083
כב	-1084
▁ברי	-1085
▁שתי	-1086
▁נשים	-1087
מוך	-1088
וסייה	-1089
▁שלכם	-1090
▁עבודה	-1091
▁הפר	-1092
▁תמיד	-1093
▁מישהו	-1094
▁מתק	-1095
▁דיון	-1096
חז	-1097
ברות	-1098
▁להגיע	-1099
שרה	-1100
וה	-1101
▁רבותי	-1102
ותם	-1103
▁לרשות	-1104
▁שמע	-1105
▁כשא	-1106
מונה	-1107
ליאר	-1108
▁שוב	-1109
יוע	-1110
▁חברות	-1111
צות	-1112
▁פי	-1113
פון	-1114
▁והמ	-1115
▁אר	-1116
▁כנ	-1117
▁חברים	-1118
▁וי	-1119
▁הישראלית	-1120
▁יהיו	-1121
קי	-1122
▁משה	-1123
וקר	-1124
פני	-1125
גיעה	-1126
▁הגיע	-1127
▁וד	-1128
שונה	-1129
שורת	-1130
▁הבא	-1131
▁מל	-1132
שתי	-1133
▁כהן	-1134
▁הצב	-1135
▁החר	-1136
▁דווקא	-1137
▁ואחר	-1138
▁לתק	-1139
▁מוע	-1140
▁הערבי	-1141
ספר	-1142
▁העולם	-1143
גור	-1144
▁להכ	-1145
מל	-1146
ודאי	-1147
▁כמעט	-1148
כולם	-1149
▁סלי	-1150
▁מתוך	-1151
▁הבית	-1152
▁202	-1153
▁לפחות	-1154
▁כח	-1155
קת	-1156
▁להג	-1157
▁אצל	-1158
ישובים	-1159
ערי	-1160
▁תיק	-1161
▁גור	-1162
▁צריכה	-1163
שראלי	-1164
▁ער	-1165
אם	-1166
נין	-1167
▁יוצ	-1168
▁בעיה	-1169
▁מסת	-1170
▁רב	-1171
▁הכספים	-1172
▁שומ	-1173
▁רבים	-1174
קר	-1175
צים	-1176
0%	-1177
▁נמצאים	-1178
▁תוכנית	-1179
ברו	-1180
▁לבר	-1181
אול	-1182
▁האמ	-1183
▁לפת	-1184
יושב	-1185
זכיר	-1186
▁ברו	-1187
▁צע	-1188
▁מציע	-1189
ודש	-1190
▁חז	-1191
▁להצביע	-1192
▁השרים	-1193
▁קורה	-1194
בוה	-1195
▁מיליאר	-1196
▁הסכ	-1197
▁שבוע	-1198
▁לבוא	-1199
▁כוח	-1200
▁חל	-1201
ופת	-1202
▁למי	-1203
▁מאז	-1204
▁זכויות	-1205
פע	-1206
וויון	-1207
▁צה	-1208
גות	-1209
▁תל	-1210
▁והם	-1211
וגיה	-1212
▁מבחי	-1213
▁יכולה	-1214
וצאה	-1215
ליאה	-1216
▁חודשים	-1217
▁אק	-1218
▁7	-1219
ראו	-1220
▁שאלה	-1221
▁העניין	-1222
▁העל	-1223
נם	-1224
משך	-1225
▁לראות	-1226
▁מזה	-1227
▁משמעות	-1228
▁מהמ	-1229
ירושלים	-1230
▁להק	-1231
ותה	-1232
▁הערבית	-1233
רושלים	-1234
שם	-1235
▁מצב	-1236
▁היהודי	-1237
▁כלל	-1238
▁אופ	-1239
▁בהם	-1240
▁המא	-1241
▁מיני	-1242
תיד	-1243
דש	-1244
בקש	-1245
בוא	-1246
▁בהצעת	-1247
▁נד	-1248
▁להצבעה	-1249
▁שמת	-1250
▁רגע	-1251
▁הקואליציה	-1252
▁ברור	-1253
▁שנו	-1254
▁עלי	-1255
▁מעל	-1256
▁בדרך	-1257
▁מספיק	-1258
▁האחר	-1259
▁ירושלים	-1260
ליים	-1261
▁בסוף	-1262
▁מערכת	-1263
▁בלתי	-1264
▁הפלסטי	-1265
▁הוד	-1266
▁בואו	-1267
▁לבין	-1268
▁האמת	-1269
▁אזרחי	-1270
▁גר	-1271
▁עצמ	-1272
▁נס	-1273
וכלוסייה	-1274
▁והת	-1275
▁אב	-1276
▁בהחלט	-1277
▁בממשלה	-1278
דין	-1279
▁זכות	-1280
▁לכך	-1281
▁תת	-1282
▁אתמול	-1283
▁ראשונה	-1284
▁המשפטים	-1285
▁רע	-1286
▁ומת	-1287
▁מלא	-1288
▁שלום	-1289
▁מרג	-1290
▁מן	-1291
▁קרי	-1292
▁סדר	-1293
▁בטוח	-1294
ינים	-1295
▁משת	-1296
▁תא	-1297
▁שבא	-1298
סט	-1299
▁החברה	-1300
▁יהודים	-1301
▁יא	-1302
יפ	-1303
▁לסדר	-1304
▁אד	-1305
▁מיכ	-1306
▁הפע	-1307
▁התע	-1308
נאים	-1309
▁עובדים	-1310
▁המדי	-1311
בית	-1312
קלא	-1313
ופות	-1314
▁קוב	-1315
▁הבעיה	-1316
▁במסגרת	-1317
▁אה	-1318
▁האנשים	-1319
▁אבי	-1320
▁השני	-1321
▁משר	-1322
יט	-1323
▁המצב	-1324
בדה	-1325
▁בשם	-1326
▁הולך	-1327
▁השם	-1328
▁לצערי	-1329
ועל	-1330
▁הדיון	-1331
▁שמח	-1332
חירות	-1333
▁ואין	-1334
גזר	-1335
▁תומ	-1336
▁סעיף	-1337
▁כץ	-1338
כוד	-1339
▁בארץ	-1340
יקי	-1341
▁מספר	-1342
▁באמצ	-1343
▁יס	-1344
▁ור	-1345
▁ארו	-1346
▁היית	-1347
▁במשרד	-1348
רצות	-1349
▁גל	-1350
▁הראשונה	-1351
▁הראשון	-1352
▁האי	-1353
▁לשמ	-1354
▁אותן	-1355
▁ופ	-1356
▁לממשלה	-1357
▁חר	-1358
▁כאילו	-1359
▁בוועדה	-1360
▁וצ	-1361
▁נעשה	-1362
▁סיע	-1363
שור	-1364
▁שנמצ	-1365
▁רוב	-1366
עון	-1367
נהיג	-1368
▁והיא	-1369
▁התשע	-1370
▁ימים	-1371
▁פרי	-1372
ובות	-1373
▁מנת	-1374
▁הכלכלה	-1375
וצים	-1376
קט	-1377
▁המשטרה	-1378
▁ניתן	-1379
▁היושבת	-1380
▁ובע	-1381
▁השת	-1382
▁הילדים	-1383
▁שהי	-1384
ריע	-1385
▁ומי	-1386
▁למען	-1387
ברית	-1388
▁כזאת	-1389
▁שיק	-1390
צח	-1391
מוש	-1392
▁היתה	-1393
קו	-1394
כנסת	-1395
▁מיליארד	-1396
▁מודה	-1397
▁התי	-1398
ולח	-1399
▁החל	-1400
פש	-1401
▁רח	-1402
וזר	-1403
▁כנראה	-1404
סיס	-1405
▁בל	-1406
▁שבע	-1407
▁המשרד	-1408
▁לוי	-1409
▁כרגע	-1410
▁שיהיה	-1411
בול	-1412
ופר	-1413
▁יעקב	-1414
▁מהם	-1415
נד	-1416
▁מפל	-1417
▁איזו	-1418
▁לכנסת	-1419
תו	-1420
▁השאלה	-1421
ירי	-1422
כלית	-1423
▁קב	-1424
דיר	-1425
▁שנת	-1426
▁אלו	-1427
▁גדולה	-1428
▁מוד	-1429
פג	-1430
יכנס	-1431
ואב	-1432
▁פני	-1433
מע	-1434
רונות	-1435
▁היינו	-1436
▁קרה	-1437
▁ניס	-1438
ליטה	-1439
▁בדי	-1440
▁דוד	-1441
ילדים	-1442
נסות	-1443
וסר	-1444
▁סג	-1445
▁עולה	-1446
▁פוליט	-1447
▁זוכ	-1448
ביץ	-1449
▁וס	-1450
▁19	-1451
▁לוועדת	-1452
▁אך	-1453
-20	-1454
▁רשות	-1455
▁קורא	-1456
▁מור	-1457
▁מכיר	-1458
▁ספק	-1459
▁יודעת	-1460
▁אנו	-1461
▁הארץ	-1462
יימת	-1463
תייגויות	-1464
▁במדינה	-1465
ווי	-1466
כלה	-1467
נוע	-1468
▁יוכל	-1469
נע	-1470
▁לז	-1471
▁להמשיך	-1472
▁בזמן	-1473
מט	-1474
▁יצחק	-1475
ראי	-1476
יונות	-1477
חייב	-1478
▁להשת	-1479
▁ואתה	-1480
נסים	-1481
▁סמ	-1482
▁בעלי	-1483
דמנות	-1484
▁למשל	-1485
▁בסופו	-1486
▁להבין	-1487
▁שהיו	-1488
▁לרשותך	-1489
קירה	-1490
▁נראה	-1491
▁שמש	-1492
▁שעה	-1493
▁מיקי	-1494
▁בחברה	-1495
▁ארב	-1496
▁לסיים	-1497
▁לראש	-1498
סקים	-1499
▁נוספת	-1500
פס	-1501
▁מוג	-1502
▁חנין	-1503
▁עליהם	-1504
▁סליחה	-1505
▁טובה	-1506
▁שאם	-1507
▁לבית	-1508
▁ומש	-1509
▁שליש	-1510
▁כולל	-1511
▁עליה	-1512
ושבים	-1513
▁בתחום	-1514
▁גבוה	-1515
▁האופוזיציה	-1516
▁הרווחה	-1517
ודת	-1518
פרים	-1519
טיפול	-1520
▁שיע	-1521
▁פור	-1522
▁הצעה	-1523
▁שרים	-1524
לון	-1525
▁אתכם	-1526
▁הכל	-1527
▁בוודאי	-1528
▁טיבי	-1529
▁עניין	-1530
ואי	-1531
▁זכ	-1532
רבה	-1533
▁משנה	-1534
▁עצמו	-1535
▁הקוד	-1536
ומיות	-1537
▁200	-1538
▁בשנה	-1539
ביבה	-1540
▁ארי	-1541
▁למרות	-1542
▁החיים	-1543
▁מתנגד	-1544
▁האחרון	-1545
▁השנייה	-1546
▁ובי	-1547
▁להש	-1548
▁העיר	-1549
▁להצעת	-1550
ליח	-1551
▁נכבדה	-1552
כולנו	-1553
וכניות	-1554
▁ארג	-1555
▁הלאומי	-1556
▁בעיני	-1557
צמ	-1558
▁חושבת	-1559
סם	-1560
▁הרשות	-1561
▁שטר	-1562
תיות	-1563
קבל	-1564
▁ברשות	-1565
ווים	-1566
▁נוסף	-1567
▁הדרך	-1568
▁האחרונות	-1569
▁בשבוע	-1570
▁להודות	-1571
המשפט	-1572
▁הציבורי	-1573
▁תר	-1574
יפה	-1575
לנו	-1576
▁פוג	-1577
נן	-1578
▁הישראלי	-1579
▁לקחת	-1580
▁שלושה	-1581
▁הקר	-1582
▁החלטה	-1583
▁גיל	-1584
כונה	-1585
▁השרה	-1586
▁כלפי	-1587
▁אש	-1588
▁שהממשלה	-1589
▁למק	-1590
▁מעבר	-1591
לטון	-1592
▁בדבר	-1593
▁מאח	-1594
▁הללו	-1595
0,	-1596
▁משפחות	-1597
עבר	-1598
▁עלינו	-1599
טרור	-1600
ושבי	-1601
▁ביטחון	-1602
▁ואמר	-1603
▁הצעות	-1604
▁החוץ	-1605
▁מוח	-1606
▁לשאול	-1607
▁בעיקר	-1608
טת	-1609
▁מאיר	-1610
▁האיש	-1611
שמע	-1612
▁בט	-1613
▁מקצוע	-1614
בירה	-1615
וצאות	-1616
ודנט	-1617
קצוע	-1618
▁עבור	-1619
▁שעל	-1620
▁שהצ	-1621
▁חקיקה	-1622
▁למצ	-1623
▁דעת	-1624
▁הנה	-1625
▁ירי	-1626
שרים	-1627
▁והא	-1628
▁סוג	-1629
▁לקריאה	-1630
סוף	-1631
▁מתכ	-1632
▁ההחלט	-1633
▁שמעתי	-1634
▁חייבים	-1635
▁אמרו	-1636
▁אגיד	-1637
נג	-1638
▁יהודי	-1639
כנון	-1640
אג	-1641
▁לאומי	-1642
▁8	-1643
▁חופ	-1644
גוע	-1645
פריה	-1646
▁הולכים	-1647
▁ואומר	-1648
▁באי	-1649
▁שעות	-1650
▁השנה	-1651
▁לעניין	-1652
מית	-1653
ליל	-1654
יין	-1655
קרא	-1656
דן	-1657
טרי	-1658
▁חמש	-1659
▁בשנת	-1660
▁ובר	-1661
▁עש	-1662
אמון	-1663
▁המוע	-1664
▁לדעת	-1665
ובים	-1666
שימה	-1667
▁עבר	-1668
לילה	-1669
▁לביטחון	-1670
▁לעבוד	-1671
ייס	-1672
▁ללכת	-1673
מרו	-1674
▁מני	-1675
▁במח	-1676
▁ובה	-1677
▁מכוב	-1678
▁ולע	-1679
▁מהא	-1680
יסטור	-1681
▁ועדה	-1682
יתר	-1683
ישים	-1684
▁בלב	-1685
וצע	-1686
▁צוד	-1687
ינה	-1688
▁פרט	-1689
▁אוכל	-1690
▁הקור	-1691
▁ואח	-1692
תייגות	-1693
כנו	-1694
נאי	-1695
פרי	-1696
ידות	-1697
▁לציבור	-1698
טיח	-1699
ידע	-1700
זים	-1701
▁עומד	-1702
▁לשם	-1703
▁ושל	-1704
▁לאפשר	-1705
▁בדר	-1706
▁האזרחים	-1707
▁שאמרתי	-1708
מתי	-1709
ופי	-1710
▁הערבים	-1711
▁דקה	-1712
מרי	-1713
▁מבקשת	-1714
▁והש	-1715
▁איי	-1716
וקת	-1717
יפור	-1718
▁חוקים	-1719
▁פעמים	-1720
גש	-1721
▁בפר	-1722
סקי	-1723
▁זאב	-1724
▁לפעמים	-1725
▁והה	-1726
▁בימים	-1727
▁מצד	-1728
▁מדיניות	-1729
▁טרור	-1730
▁הצבעה	-1731
מנים	-1732
▁בנימין	-1733
צד	-1734
▁אנשי	-1735
וסיף	-1736
▁שות	-1737
לישית	-1738
▁אזרחים	-1739
זרת	-1740
▁מקבלים	-1741
▁לעמוד	-1742
וחר	-1743
ובל	-1744
דע	-1745
▁היח	-1746
▁פק	-1747
▁שואל	-1748
מודד	-1749
▁מסוי	-1750
▁שמי	-1751
▁היס	-1752
▁מדינות	-1753
וקים	-1754
▁הבין	-1755
דרה	-1756
רוץ	-1757
▁לשנות	-1758
▁תוך	-1759
כתב	-1760
0,000	-1761
▁עובד	-1762
▁בנט	-1763
▁מיו	-1764
▁עני	-1765
▁נציג	-1766
▁פנים	-1767
טא	-1768
▁ובא	-1769
▁דוג	-1770
▁נג	-1771
▁מעט	-1772
ולחן	-1773
▁במשך	-1774
▁לבד	-1775
▁שאפשר	-1776
▁וחברי	-1777
▁יר	-1778
▁לוק	-1779
▁אלפי	-1780
▁לשמור	-1781
▁שיו	-1782
▁אורי	-1783
▁משום	-1784
מאס	-1785
▁דור	-1786
▁בירושלים	-1787
▁הקודמת	-1788
רקע	-1789
▁לשמוע	-1790
▁בהתאם	-1791
טרת	-1792
גוד	-1793
טודנט	-1794
▁לאנשים	-1795
▁מוש	-1796
▁דב	-1797
▁הבאה	-1798
▁חודש	-1799
▁מרכז	-1800
▁חינוך	-1801
▁מופ	-1802
▁עשרות	-1803
▁המשפטי	-1804
פתח	-1805
קבות	-1806
ענו	-1807
▁הכסף	-1808
יכוח	-1809
▁שנות	-1810
▁כלום	-1811
▁אחריות	-1812
שבות	-1813
▁כשר	-1814
▁הרצ	-1815
קור	-1816
▁קובע	-1817
▁להב	-1818
יבת	-1819
▁מתי	-1820
▁איתן	-1821
ועדות	-1822
▁להח	-1823
פורמה	-1824
שע	-1825
▁אוה	-1826
▁השירות	-1827
▁אומ	-1828
דל	-1829
▁גפני	-1830
לוט	-1831
▁תשובה	-1832
-3	-1833
משלת	-1834
מס	-1835
▁אכן	-1836
▁סכ	-1837
בירות	-1838
▁פעולה	-1839
דרים	-1840
▁יואב	-1841
▁הנח	-1842
ליות	-1843
▁לאח	-1844
ואר	-1845
▁במקרה	-1846
▁שעו	-1847
▁מכיוון	-1848
▁שבי	-1849
בלו	-1850
▁לחברת	-1851
▁איננו	-1852
▁לשבת	-1853
לול	-1854
▁לקר	-1855
▁ראשון	-1856
לוו	-1857
יית	-1858
▁מסו	-1859
▁השנים	-1860
▁הופ	-1861
יימים	-1862
▁ילד	-1863
עשה	-1864
▁האחרונים	-1865
▁לקבוע	-1866
▁ליצ	-1867
▁המרכז	-1868
▁וכן	-1869
▁בידי	-1870
בלת	-1871
פורט	-1872
▁שקורה	-1873
▁אוק	-1874
▁לדיון	-1875
▁ערבים	-1876
▁תחת	-1877
▁באים	-1878
▁יעלה	-1879
▁לטפל	-1880
חם	-1881
▁רו	-1882
דימה	-1883
יעים	-1884
▁העליון	-1885
▁חיי	-1886
▁מייד	-1887
▁תצ	-1888
▁באמצעות	-1889
מוקרטית	-1890
▁בסיס	-1891
▁נותן	-1892
▁האחרונה	-1893
שרת	-1894
▁והע	-1895
▁חדש	-1896
▁הנוכח	-1897
▁שנקרא	-1898
▁הדר	-1899
',	-1900
וספת	-1901
▁לתקן	-1902
מידים	-1903
▁שכר	-1904
▁מאות	-1905
▁12	-1906
ירו	-1907
זרחים	-1908
נתיים	-1909
שייה	-1910
ידור	-1911
למ	-1912
▁שהה	-1913
מיכה	-1914
▁9	-1915
וליטי	-1916
סתכל	-1917
▁והח	-1918
▁ובכל	-1919
יבים	-1920
▁מבחינת	-1921
רכים	-1922
▁ברח	-1923
▁המה	-1924
▁לנושא	-1925
▁נעבור	-1926
▁15	-1927
▁לישראל	-1928
▁מתחיל	-1929
▁תפ	-1930
בלים	-1931
▁שבהם	-1932
יתוח	-1933
▁לקדם	-1934
▁ככל	-1935
▁הסביבה	-1936
▁יי	-1937
▁וחצי	-1938
▁התקשורת	-1939
▁תלו	-1940
▁ראוי	-1941
▁מיר	-1942
▁השק	-1943
▁באותו	-1944
▁שינוי	-1945
▁האדם	-1946
כנס	-1947
▁אסור	-1948
▁השבוע	-1949
▁משא	-1950
למים	-1951
▁משק	-1952
סכ	-1953
▁בעוד	-1954
▁לטובת	-1955
4,	-1956
▁עז	-1957
לימות	-1958
יקוח	-1959
▁ביחד	-1960
יכון	-1961
כולת	-1962
▁אחרות	-1963
▁התחבורה	-1964
רוס	-1965
▁בבתי	-1966
▁להתע	-1967
▁מסכים	-1968
▁קל	-1969
ופעה	-1970
▁ראיתי	-1971
▁מאמין	-1972
▁למנוע	-1973
▁הגדול	-1974
יסוד	-1975
▁בכך	-1976
▁נכנס	-1977
▁נשא	-1978
▁במהלך	-1979
▁שלמה	-1980
מאל	-1981
▁הליכוד	-1982
▁שהע	-1983
▁במצב	-1984
שמל	-1985
שיבה	-1986
▁שית	-1987
▁חצי	-1988
▁המוס	-1989
▁לשעבר	-1990
▁לשלם	-1991
קבלה	-1992
▁נוספים	-1993
▁לכולם	-1994
▁רצי	-1995
▁שיכול	-1996
▁במיוחד	-1997
▁התשובה	-1998
ביש	-1999
▁לחברי	-2000
▁עבוד	-2001
▁שיי	-2002
יתן	-2003
ירום	-2004
חולים	-2005
▁עשה	-2006
טב	-2007
▁ראשי	-2008
▁דיבר	-2009
ריפריה	-2010
▁בשל	-2011
בלות	-2012
▁באה	-2013
▁ממה	-2014
▁מוכן	-2015
נא	-2016
▁בעקבות	-2017
ישה	-2018
וחות	-2019
▁רג	-2020
ודיע	-2021
▁נותנים	-2022
ידו	-2023
שיבות	-2024
▁הדיור	-2025
ומרון	-2026
יתות	-2027
▁חוץ	-2028
היה	-2029
▁לכאן	-2030
▁להיכנס	-2031
וצות	-2032
▁הנת	-2033
▁תנו	-2034
ענה	-2035
▁פתרון	-2036
▁המים	-2037
כוון	-2038
▁אירוע	-2039
▁זוכר	-2040
▁החקלא	-2041
▁הקורונה	-2042
פחות	-2043
▁ועד	-2044
▁מיכל	-2045
▁הוג	-2046
▁אג	-2047
▁היוע	-2048
▁שג	-2049
ועה	-2050
מלי	-2051
▁חשובה	-2052
▁אבו	-2053
▁התוכנית	-2054
▁פגיעה	-2055
▁יבוא	-2056
▁אחמד	-2057
▁מכן	-2058
▁עשו	-2059
▁ערבי	-2060
▁בגין	-2061
▁מדוע	-2062
יקים	-2063
▁בריאות	-2064
▁כלומר	-2065
ימה	-2066
▁מפני	-2067
▁כד	-2068
▁לציין	-2069
▁הרשויות	-2070
▁סוף	-2071
▁שס	-2072
▁הבחירות	-2073
זם	-2074
▁האוכלוסייה	-2075
▁סיעת	-2076
▁נמנ	-2077
▁הדמוקרטיה	-2078
דרות	-2079
▁ממנו	-2080
▁המלחמה	-2081
▁יהודית	-2082
סר	-2083
▁אופיר	-2084
און	-2085
▁להתייחס	-2086
מץ	-2087
▁להתמודד	-2088
▁לפיד	-2089
▁עיר	-2090
▁אוקיי	-2091
סות	-2092
▁הני	-2093
▁פל	-2094
▁לצאת	-2095
טט	-2096
▁שבאמת	-2097
▁ההצבעה	-2098
▁שבת	-2099
▁שהא	-2100
▁לקרוא	-2101
יכו	-2102
רויק	-2103
▁ישב	-2104
▁במליאה	-2105
▁ראו	-2106
▁למדינת	-2107
▁ואחריו	-2108
▁והג	-2109
סח	-2110
▁לעבור	-2111
▁הפוליט	-2112
▁מהר	-2113
▁מאפשר	-2114
▁עולם	-2115
▁הדין	-2116
▁ניצ	-2117
▁פרס	-2118
▁אחוז	-2119
▁להשיב	-2120
▁עק	-2121
3,	-2122
▁חש	-2123
▁צורך	-2124
סקה	-2125
▁החד	-2126
▁מיכאלי	-2127
▁חברתי	-2128
רונה	-2129
▁החברתי	-2130
יבי	-2131
יתנו	-2132
▁מאשר	-2133
▁אליו	-2134
▁לחזור	-2135
▁להור	-2136
▁האס	-2137
מודים	-2138
דרת	-2139
זרחי	-2140
נתה	-2141
▁החרדי	-2142
▁שלישית	-2143
שרות	-2144
▁ספר	-2145
▁כשאת	-2146
הליך	-2147
צו	-2148
סוק	-2149
רין	-2150
▁אפשרות	-2151
▁לבח	-2152
▁מחו	-2153
▁להחז	-2154
▁אלימות	-2155
טודנטים	-2156
▁במע	-2157
▁לוין	-2158
מום	-2159
▁לידי	-2160
▁קרא	-2161
1,	-2162
▁אצ	-2163
יתית	-2164
מיים	-2165
▁יצא	-2166
▁הצע	-2167
▁עתיד	-2168
▁פתאום	-2169
▁מבינים	-2170
▁אחריו	-2171
נינו	-2172
ינויים	-2173
▁ומצ	-2174
▁למשרד	-2175
▁לפעול	-2176
ינטר	-2177
▁קיצ	-2178
▁הציבורית	-2179
▁שעבר	-2180
▁1.	-2181
▁שופ	-2182
▁היהודים	-2183
וסף	-2184
▁נב	-2185
▁שומע	-2186
▁יפה	-2187
יסטוריה	-2188
▁פלסטי	-2189
▁להגן	-2190
▁ייש	-2191
▁להא	-2192
▁לפגוע	-2193
▁ואתם	-2194
▁שו	-2195
▁מלחמה	-2196
▁מקומות	-2197
▁לחיות	-2198
▁מוותר	-2199
פיה	-2200
▁בתקציב	-2201
▁מחיר	-2202
▁איז	-2203
מך	-2204
ידום	-2205
▁לבנות	-2206
כונות	-2207
▁יקרה	-2208
▁הדוברים	-2209
-5	-2210
▁קדימה	-2211
▁העובדה	-2212
▁החלטות	-2213
סוקה	-2214
▁דין	-2215
▁להקים	-2216
▁תס	-2217
▁וג	-2218
ילתה	-2219
וונה	-2220
▁מסוג	-2221
וקף	-2222
שתה	-2223
ידים	-2224
▁מענה	-2225
▁חברה	-2226
▁מכובדי	-2227
▁ועכשיו	-2228
סא	-2229
▁בשנים	-2230
וביל	-2231
▁יפ	-2232
▁כלכ	-2233
▁לתמוך	-2234
▁ההחלטה	-2235
רטי	-2236
▁הקמת	-2237
▁למעשה	-2238
▁ודאי	-2239
▁וכמ	-2240
▁בבי	-2241
▁אליה	-2242
מני	-2243
▁מטעם	-2244
אדם	-2245
טחים	-2246
▁מוצע	-2247
▁מעניין	-2248
▁התא	-2249
▁ולת	-2250
זל	-2251
לחמת	-2252
וחים	-2253
ריים	-2254
תף	-2255
▁החוקים	-2256
▁שמה	-2257
▁החשוב	-2258
▁ולק	-2259
▁המציאות	-2260
▁ומע	-2261
▁שאינ	-2262
▁הקט	-2263
▁היהודית	-2264
▁ברגע	-2265
▁ממשי	-2266
▁חמ	-2267
▁בעל	-2268
▁סע	-2269
▁במערכת	-2270
▁מסתכל	-2271
▁דיור	-2272
▁מנו	-2273
יעוט	-2274
-201	-2275
▁המקצוע	-2276
ביעים	-2277
פילו	-2278
▁והצ	-2279
▁החקיקה	-2280
▁כס	-2281
▁שמא	-2282
▁להעלות	-2283
בן	-2284
▁שוויון	-2285
▁הפרט	-2286
▁והס	-2287
טחוני	-2288
לין	-2289
ובי	-2290
▁מזמין	-2291
חילה	-2292
'.	-2293
▁הזכות	-2294
▁קיים	-2295
▁ורק	-2296
▁ולח	-2297
▁תוכניות	-2298
▁הצד	-2299
▁לייצ	-2300
▁מהת	-2301
דרש	-2302
▁שכבר	-2303
▁יחס	-2304
▁מגיעים	-2305
▁ברק	-2306
▁הביטוח	-2307
רך	-2308
▁האפשר	-2309
▁קשר	-2310
מדה	-2311
▁ביטון	-2312
▁התורה	-2313
טיבי	-2314
▁אחרון	-2315
עזר	-2316
▁לוח	-2317
▁מוז	-2318
▁תפקיד	-2319
רוט	-2320
צבא	-2321
▁להן	-2322
▁צודק	-2323
לויות	-2324
נייני	-2325
▁עוס	-2326
▁הכבוד	-2327
רתי	-2328
יבוש	-2329
▁עצמם	-2330
▁גנ	-2331
▁טובים	-2332
כבת	-2333
כיפה	-2334
קבע	-2335
-4	-2336
▁לעלות	-2337
8,	-2338
שיא	-2339
▁מאת	-2340
ומדים	-2341
▁לקיים	-2342
למנט	-2343
גמה	-2344
▁שיל	-2345
▁מתע	-2346
▁מהע	-2347
▁יור	-2348
▁להוציא	-2349
הילה	-2350
▁קש	-2351
▁העובדים	-2352
▁המשות	-2353
▁הלו	-2354
▁חושבים	-2355
▁הסתייגויות	-2356
▁גזע	-2357
▁באזור	-2358
▁מוק	-2359
▁יוסף	-2360
▁כיום	-2361
ניהם	-2362
נצ	-2363
▁שהן	-2364
▁משפחה	-2365
ומו	-2366
▁ראינו	-2367
▁אכ	-2368
וצת	-2369
▁חשבון	-2370
▁זוה	-2371
▁שונים	-2372
▁למדינה	-2373
▁רפ	-2374
▁תראו	-2375
▁ושומרון	-2376
▁לדו	-2377
גידו	-2378
▁שתהיה	-2379
▁שהחוק	-2380
▁כפ	-2381
ואליצ	-2382
דינות	-2383
5%	-2384
▁איר	-2385
▁בנגב	-2386
תיישבות	-2387
▁100	-2388
▁להזכיר	-2389
ומד	-2390
▁בלבד	-2391
▁באותה	-2392
▁קטן	-2393
של	-2394
▁מחר	-2395
▁מהה	-2396
יבוא	-2397
יסא	-2398
מאן	-2399
טופים	-2400
▁בקרב	-2401
▁הודעה	-2402
▁טיפול	-2403
ריא	-2404
▁מתן	-2405
▁חוזר	-2406
▁ישיב	-2407
▁יאיר	-2408
▁ביו	-2409
▁מיוחד	-2410
יונית	-2411
▁שד	-2412
5,	-2413
בט	-2414
הברית	-2415
▁אמרת	-2416
▁המקום	-2417
▁תי	-2418
▁נדמה	-2419
▁המקומיות	-2420
אבק	-2421
▁כאמור	-2422
▁מירב	-2423
▁אברה	-2424
▁פרק	-2425
▁בעבר	-2426
▁הדת	-2427
▁לספר	-2428
▁תושבי	-2429
ברסי	-2430
▁מנהיג	-2431
▁מחברי	-2432
▁החוקה	-2433
▁מעמד	-2434
ונית	-2435
▁וצריך	-2436
נר	-2437
סל	-2438
▁בהק	-2439
▁היתר	-2440
▁תכ	-2441
יינים	-2442
▁לצורך	-2443
▁ועם	-2444
▁אישי	-2445
שהי	-2446
▁/	-2447
▁תיקון	-2448
▁מנה	-2449
▁ליבר	-2450
▁לבני	-2451
▁במקומות	-2452
▁הרע	-2453
לכתי	-2454
ובדים	-2455
לן	-2456
▁שרת	-2457
▁הסיפור	-2458
▁שהייתה	-2459
▁הפת	-2460
טובר	-2461
▁עסק	-2462
▁ללמוד	-2463
▁נמצאת	-2464
▁רוח	-2465
▁שזו	-2466
▁הסכם	-2467
▁ייע	-2468
▁דוגמה	-2469
▁ריב	-2470
▁צי	-2471
▁להתק	-2472
▁למצב	-2473
ומיים	-2474
הספר	-2475
▁השב	-2476
▁כתב	-2477
▁וכך	-2478
וטרים	-2479
אביב	-2480
▁מיכאל	-2481
ייע	-2482
ישור	-2483
▁הרג	-2484
▁המשפחה	-2485
▁לברך	-2486
▁מכאן	-2487
▁פוע	-2488
▁מייצ	-2489
חרות	-2490
▁למצוא	-2491
▁ההג	-2492
▁הצבא	-2493
יוס	-2494
טוב	-2495
חילת	-2496
▁מבר	-2497
הל	-2498
▁קול	-2499
▁בתקופה	-2500
▁מראש	-2501
▁מתנגדים	-2502
לייה	-2503
ורכי	-2504
▁קצ	-2505
▁החי	-2506
▁תגיד	-2507
▁ובמ	-2508
▁כשאני	-2509
▁התשפ	-2510
▁אתן	-2511
▁במצ	-2512
▁צעירים	-2513
▁חוסר	-2514
▁כשאנחנו	-2515
▁דת	-2516
▁עמדת	-2517
▁ציבורי	-2518
טרך	-2519
▁מותר	-2520
מנה	-2521
▁ציבורית	-2522
▁חקירה	-2523
רש	-2524
▁טל	-2525
▁שנתיים	-2526
▁ברוך	-2527
2,	-2528
▁קו	-2529
▁נורא	-2530
לינו	-2531
▁הספר	-2532
▁וכמובן	-2533
▁בניגוד	-2534
▁ומא	-2535
▁פונה	-2536
-7	-2537
▁חסון	-2538
▁עצמה	-2539
ולת	-2540
▁מבקשים	-2541
▁המב	-2542
ילואים	-2543
לית	-2544
▁פעילות	-2545
▁ברורה	-2546
▁זק	-2547
▁העוני	-2548
לאומי	-2549
רצה	-2550
▁חייבת	-2551
▁החולים	-2552
פליה	-2553
▁הרח	-2554
▁במגזר	-2555
חתי	-2556
▁שאומר	-2557
מם	-2558
לוטין	-2559
▁אמס	-2560
▁תשוב	-2561
▁ארבע	-2562
רנו	-2563
טרף	-2564
▁לאורך	-2565
▁עמד	-2566
▁הזדמנות	-2567
תים	-2568
מדו	-2569
▁30	-2570
▁למח	-2571
▁לחלוטין	-2572
▁דוח	-2573
כיר	-2574
▁בחודש	-2575
▁ליה	-2576
▁אמסלם	-2577
▁יו	-2578
▁מתח	-2579
▁בדיון	-2580
ביעו	-2581
▁הביתה	-2582
▁חיילים	-2583
▁שיצ	-2584
אוג	-2585
▁תהליך	-2586
זדמנות	-2587
▁השי	-2588
דיל	-2589
▁אמיתי	-2590
▁רש	-2591
▁החלטת	-2592
▁המל	-2593
▁הנתונים	-2594
▁בצד	-2595
▁שהח	-2596
▁הלב	-2597
▁מכירים	-2598
▁מחדש	-2599
▁דברי	-2600
▁רוז	-2601
▁דירות	-2602
▁באוק	-2603
▁2.	-2604
▁ביחס	-2605
▁כלי	-2606
▁יוצא	-2607
▁לאי	-2608
▁שיר	-2609
▁יריב	-2610
▁עצמי	-2611
רוז	-2612
▁מסוים	-2613
▁שרוצה	-2614
רס	-2615
▁מילה	-2616
▁שנמצאים	-2617
פלגה	-2618
▁מקרה	-2619
▁משות	-2620
נהלות	-2621
▁כתוב	-2622
▁עובר	-2623
▁להציג	-2624
▁יואל	-2625
7,	-2626
▁להי	-2627
▁לוועדה	-2628
דוש	-2629
▁הישיבה	-2630
▁לחשוב	-2631
▁שמגיע	-2632
▁להוסיף	-2633
▁נפג	-2634
▁לאשר	-2635
▁מכם	-2636
▁בזכות	-2637
טות	-2638
▁גול	-2639
ומתן	-2640
▁הכנסה	-2641
6,	-2642
▁ביה	-2643
▁יוכלו	-2644
כלר	-2645
ופאים	-2646
▁מתכבד	-2647
ודד	-2648
▁והק	-2649
ריכים	-2650
▁הדעת	-2651
▁שוא	-2652
סיף	-2653
קין	-2654
▁ואל	-2655
▁למעלה	-2656
▁לארץ	-2657
▁שראש	-2658
▁מצביעים	-2659
מקום	-2660
▁והב	-2661
▁צו	-2662
▁אינם	-2663
חדת	-2664
▁לעולם	-2665
▁התרבות	-2666
▁צבא	-2667
▁המפ	-2668
▁עומדים	-2669
▁שומעים	-2670
▁מים	-2671
▁אייכלר	-2672
▁בטח	-2673
▁כשמ	-2674
▁אישור	-2675
שבון	-2676
ישראל	-2677
▁לפתוח	-2678
▁ראשית	-2679
▁קוראים	-2680
▁הסדר	-2681
▁וחבר	-2682
▁הממ	-2683
מוס	-2684
▁אומנם	-2685
▁כשהוא	-2686
▁השופ	-2687
וזרים	-2688
▁הפלסטינית	-2689
▁נפש	-2690
ראוי	-2691
▁לסעיף	-2692
נקים	-2693
▁רבי	-2694
▁הפעם	-2695
▁יגיע	-2696
זכור	-2697
ניסה	-2698
▁וכו	-2699
▁השלטון	-2700
0.	-2701
ועד	-2702
▁והבי	-2703
▁בנייה	-2704
▁שכן	-2705
יהן	-2706
▁כולו	-2707
רית	-2708
▁הינה	-2709
▁הבנתי	-2710
▁שלט	-2711
דית	-2712
▁תורה	-2713
▁לבדוק	-2714
עיפים	-2715
▁בעיות	-2716
מיות	-2717
▁המון	-2718
▁אריאל	-2719
דיין	-2720
▁לעזור	-2721
▁שיושב	-2722
▁חדשים	-2723
דרי	-2724
▁ממך	-2725
▁אישית	-2726
כנול	-2727
▁ולהגיד	-2728
▁מרח	-2729
זרה	-2730
▁קואליציה	-2731
יכום	-2732
▁נוכל	-2733
▁לעם	-2734
ענות	-2735
▁חופש	-2736
▁בחירות	-2737
▁גב	-2738
▁עיני	-2739
▁נצביע	-2740
▁הנא	-2741
▁ארצות	-2742
▁שמצ	-2743
▁ארץ	-2744
פתי	-2745
▁הטרור	-2746
גו	-2747
▁באוקטובר	-2748
יטי	-2749
▁לימוד	-2750
▁הבל	-2751
▁ואף	-2752
יעות	-2753
פחה	-2754
▁נפת	-2755
▁צדק	-2756
▁האחריות	-2757
▁חוקי	-2758
▁לנהל	-2759
▁לשכ	-2760
▁פוליטי	-2761
יוניים	-2762
כס	-2763
נחה	-2764
▁להתחיל	-2765
▁חירום	-2766
▁לילדים	-2767
▁ההכ	-2768
▁היסטור	-2769
▁נושאים	-2770
▁תראה	-2771
דמה	-2772
▁תמ	-2773
▁לאן	-2774
▁לפנות	-2775
▁חדשה	-2776
▁כיוון	-2777
▁ואולי	-2778
▁כשאתה	-2779
▁לדי	-2780
▁מהש	-2781
▁משמעותי	-2782
▁חרדים	-2783
▁הבסיס	-2784
ערנו	-2785
▁עלה	-2786
▁שאי	-2787
ושי	-2788
ריק	-2789
▁המדיניות	-2790
זב	-2791
▁הבד	-2792
▁דירה	-2793
-6	-2794
▁סמו	-2795
▁הסמ	-2796
▁תפק	-2797
▁כלכלית	-2798
וסיות	-2799
▁בקואליציה	-2800
▁לאור	-2801
שיעה	-2802
וונת	-2803
▁ארבעה	-2804
▁לצד	-2805
אונות	-2806
▁האירוע	-2807
ורמים	-2808
▁מנסה	-2809
ליף	-2810
▁חולים	-2811
▁בשירות	-2812
▁המשפטית	-2813
בקר	-2814
▁ידע	-2815
▁להחזיר	-2816
ראת	-2817
נציה	-2818
▁וזאת	-2819
▁עבד	-2820
▁ליברמן	-2821
:00	-2822
▁סביב	-2823
▁עמיתי	-2824
▁פס	-2825
▁יושבים	-2826
▁רשויות	-2827
▁החקלאות	-2828
▁התכנון	-2829
▁לענות	-2830
▁כעת	-2831
▁ליד	-2832
▁שולחן	-2833
כך	-2834
▁מתחת	-2835
▁היש	-2836
9,	-2837
▁גלעד	-2838
▁תוכל	-2839
▁מעור	-2840
יעו	-2841
▁החליטה	-2842
קציבי	-2843
▁מחי	-2844
▁דח	-2845
יאלי	-2846
הדין	-2847
▁הפלסטינים	-2848
▁בעזרת	-2849
▁כנגד	-2850
▁שהיום	-2851
▁ביקש	-2852
▁בפעם	-2853
▁שאלות	-2854
▁לשים	-2855
▁לדאוג	-2856
וניברסי	-2857
▁שקרה	-2858
לוש	-2859
▁שול	-2860
▁המערכת	-2861
▁ביש	-2862
▁חבל	-2863
▁הגיעו	-2864
▁נאמר	-2865
▁אליך	-2866
▁הילד	-2867
▁לחי	-2868
▁כספים	-2869
▁למקום	-2870
▁להסביר	-2871
טיחות	-2872
▁הברית	-2873
▁ידידי	-2874
צעות	-2875
▁זהו	-2876
▁תפי	-2877
▁ערך	-2878
▁נוספות	-2879
▁יב	-2880
רום	-2881
▁זוע	-2882
ובד	-2883
ויים	-2884
▁בסך	-2885
▁מפק	-2886
▁יכולת	-2887
▁גבוהה	-2888
▁שהגיע	-2889
▁מאמי	-2890
דון	-2891
▁אמור	-2892
נועה	-2893
רוטוק	-2894
▁הכלכלי	-2895
▁חובה	-2896
▁משבר	-2897
▁תג	-2898
▁החרדים	-2899
▁המשמעות	-2900
▁מסכי	-2901
▁הצורך	-2902
▁נבח	-2903
ולאי	-2904
▁מהס	-2905
▁הבטח	-2906
ביעות	-2907
▁ומס	-2908
פית	-2909
וניס	-2910
▁שטרן	-2911
▁ויכוח	-2912
▁נחמן	-2913
▁החדש	-2914
▁סיפור	-2915
▁ימי	-2916
▁נית	-2917
▁באו	-2918
▁להודיע	-2919
לוקת	-2920
▁שמונה	-2921
ליטים	-2922
טריץ	-2923
▁וחברות	-2924
ביעה	-2925
וטוב	-2926
חדים	-2927
▁מקלב	-2928
ציג	-2929
יבית	-2930
▁מפלגת	-2931
▁תקשיב	-2932
▁מדברת	-2933
זון	-2934
טיין	-2935
▁בבוקר	-2936
▁הסת	-2937
▁מהק	-2938
▁שמו	-2939
▁אזולאי	-2940
▁לברכה	-2941
▁השידור	-2942
אלה	-2943
▁שונות	-2944
▁אברהם	-2945
ניינים	-2946
▁ביטוי	-2947
בדים	-2948
▁המאבק	-2949
וין	-2950
▁ביקורת	-2951
▁אצלנו	-2952
▁שיהיו	-2953
▁גדולים	-2954
▁משפחת	-2955
▁חת	-2956
▁לגמרי	-2957
▁שנע	-2958
▁בפועל	-2959
▁יוע	-2960
ליק	-2961
▁אמרה	-2962
▁נשיא	-2963
בייש	-2964
▁מסע	-2965
▁ארגון	-2966
הו	-2967
נטי	-2968
▁11	-2969
▁בהמשך	-2970
מאות	-2971
▁והן	-2972
▁יהודה	-2973
▁השלום	-2974
-19	-2975
▁מחוץ	-2976
▁עשינו	-2977
▁מסיים	-2978
▁הסתייגות	-2979
נוי	-2980
▁קשור	-2981
ידת	-2982
▁עולים	-2983
▁14	-2984
▁ההורים	-2985
▁ולש	-2986
▁להז	-2987
▁קא	-2988
מבר	-2989
▁קיבל	-2990
בריאות	-2991
וראת	-2992
▁ליושב	-2993
▁ריש	-2994
▁שמחה	-2995
▁ערב	-2996
▁בעת	-2997
▁18	-2998
▁ולמ	-2999
▁משכ	-3000
▁לבטל	-3001
▁המשותפת	-3002
▁חול	-3003
▁שיא	-3004
מישה	-3005
▁להיש	-3006
▁ונו	-3007
▁ברמה	-3008
▁קיימת	-3009
▁מתכוון	-3010
שבו	-3011
▁מביא	-3012
ראית	-3013
▁חשובים	-3014
▁וכמה	-3015
▁שהמדינה	-3016
▁שיח	-3017
▁חמור	-3018
▁גביר	-3019
▁עזה	-3020
▁מהח	-3021
רויקט	-3022
▁אריה	-3023
הול	-3024
ילחם	-3025
▁שמס	-3026
וגיות	-3027
פלים	-3028
▁התג	-3029
▁האינטר	-3030
▁שקיב	-3031
▁הגדולה	-3032
▁בושה	-3033
▁ביד	-3034
▁בשעה	-3035
נש	-3036
▁וול	-3037
▁איננה	-3038
▁שנמצא	-3039
נתן	-3040
▁תוספת	-3041
▁יישובים	-3042
בירים	-3043
▁עלייה	-3044
▁ובו	-3045
▁הטיפול	-3046
▁מעשה	-3047
רוב	-3048
נסקי	-3049
סתה	-3050
למידים	-3051
▁דמוקרטית	-3052
▁דיונים	-3053
▁שנא	-3054
▁מרב	-3055
▁מרצ	-3056
▁היועץ	-3057
ניח	-3058
▁ועדות	-3059
▁גז	-3060
ועים	-3061
ננים	-3062
▁דמוקרטיה	-3063
▁מחז	-3064
▁הגז	-3065
▁הממש	-3066
▁בהן	-3067
▁נתונים	-3068
▁שאנשים	-3069
▁לאחרונה	-3070
דמות	-3071
▁שטרית	-3072
▁במת	-3073
▁ייק	-3074
דנציה	-3075
בס	-3076
▁שבר	-3077
▁חשבתי	-3078
▁התנגד	-3079
▁זיכ	-3080
יתונ	-3081
יאה	-3082
▁בנק	-3083
▁עשית	-3084
▁לדעתי	-3085
▁ויותר	-3086
▁סתם	-3087
▁ואי	-3088
▁עברה	-3089
▁ממשיכים	-3090
▁שהול	-3091
▁דמי	-3092
▁בשטח	-3093
▁שאולי	-3094
וסים	-3095
▁וזו	-3096
▁ולי	-3097
רוג	-3098
▁רצח	-3099
▁קבע	-3100
▁לעומת	-3101
▁חרי	-3102
▁ובת	-3103
▁סיבה	-3104
ודיים	-3105
▁סמכות	-3106
▁מקרים	-3107
▁שמענו	-3108
▁המועצה	-3109
▁למד	-3110
▁פעולות	-3111
▁מרגי	-3112
▁ומח	-3113
▁בשום	-3114
▁הדוכן	-3115
▁ייצ	-3116
טרית	-3117
עתם	-3118
▁הצל	-3119
ירעון	-3120
▁ממנה	-3121
▁מנסים	-3122
▁מזכיר	-3123
-200	-3124
▁הוק	-3125
▁מטר	-3126
▁הרפ	-3127
▁חיל	-3128
▁להרח	-3129
▁שלהן	-3130
▁לפתור	-3131
▁ואפילו	-3132
▁רציתי	-3133
▁מאי	-3134
▁לעבודה	-3135
▁לדון	-3136
גרות	-3137
▁ניסיון	-3138
▁והי	-3139
▁המכ	-3140
▁אמיתית	-3141
▁בעיר	-3142
▁היכולת	-3143
מיחה	-3144
▁לאותם	-3145
▁ששר	-3146
▁מניח	-3147
▁יושבת	-3148
▁ושר	-3149
▁סיוע	-3150
▁ביטוח	-3151
▁השואה	-3152
▁לשירות	-3153
▁הוראות	-3154
▁פוליטית	-3155
מצם	-3156
▁והפ	-3157
▁שאח	-3158
גרים	-3159
סקת	-3160
▁נרצ	-3161
▁סמוטריץ	-3162
ניק	-3163
▁גנאים	-3164
▁המער	-3165
▁האו	-3166
עיל	-3167
▁לענייני	-3168
▁הפק	-3169
▁מין	-3170
▁עיד	-3171
▁אבקש	-3172
▁היק	-3173
▁המשך	-3174
▁מנכ	-3175
▁זח	-3176
▁כלכלי	-3177
▁דרעי	-3178
▁יעבור	-3179
▁סמכויות	-3180
▁מתייחס	-3181
▁ולהת	-3182
▁לפה	-3183
▁תרבות	-3184
▁שהש	-3185
החולים	-3186
▁צר	-3187
אשר	-3188
▁להוריד	-3189
▁ההסתייגויות	-3190
▁בצבא	-3191
▁לשרת	-3192
גישות	-3193
▁רבותיי	-3194
ורף	-3195
▁קריאה	-3196
▁המחיר	-3197
▁13	-3198
חושה	-3199
מלא	-3200
▁להכניס	-3201
▁נהרג	-3202
▁היחידה	-3203
▁מאבק	-3204
▁יעל	-3205
רוטוקול	-3206
▁שמדובר	-3207
▁שדי	-3208
▁עמדה	-3209
▁בתל	-3210
נשי	-3211
▁לעצור	-3212
▁התייחס	-3213
▁מסוימת	-3214
יתים	-3215
▁לוקח	-3216
▁מנהל	-3217
שמח	-3218
▁עובדי	-3219
▁הנוכחית	-3220
▁ימין	-3221
▁החליט	-3222
▁מעולם	-3223
וכן	-3224
▁אורלי	-3225
▁משרדי	-3226
▁סל	-3227
חריות	-3228
פלגות	-3229
מח	-3230
▁שירותי	-3231
▁האת	-3232
▁נמנעים	-3233
▁להתנגד	-3234
▁מבחינה	-3235
▁אביב	-3236
▁אלקין	-3237
געים	-3238
▁בדברים	-3239
▁בנוסף	-3240
אלקה	-3241
מינו	-3242
▁בתור	-3243
▁ולאחר	-3244
▁רגב	-3245
מדת	-3246
▁אתי	-3247
▁10	-3248
▁פשו	-3249
▁נשק	-3250
▁באיזה	-3251
▁אינטר	-3252
▁לייצר	-3253
▁נהיה	-3254
▁קיבלו	-3255
▁מצלי	-3256
רווי	-3257
▁בחלק	-3258
▁כבל	-3259
נכ	-3260
▁לתיקון	-3261
▁העיק	-3262
מצא	-3263
▁ולומר	-3264
▁שיג	-3265
כבות	-3266
▁כמי	-3267
▁חלילה	-3268
▁פוגע	-3269
▁נמשיך	-3270
כז	-3271
▁ישראלי	-3272
▁היישובים	-3273
▁קיו	-3274
רע	-3275
▁חג	-3276
▁לכולנו	-3277
▁הוראת	-3278
▁לקראת	-3279
▁ושוב	-3280
▁המטרה	-3281
▁להט	-3282
▁לגיטי	-3283
▁לבצע	-3284
פוך	-3285
▁שווה	-3286
▁מפריע	-3287
ודשים	-3288
דיניות	-3289
▁שימוש	-3290
▁המשפחות	-3291
▁ובש	-3292
▁זחאלקה	-3293
▁המי	-3294
▁ואומרים	-3295
▁שיד	-3296
▁בוד	-3297
▁נשמע	-3298
חלה	-3299
▁הכלכלית	-3300
▁העלייה	-3301
▁עא	-3302
▁היטב	-3303
ראים	-3304
▁בשבת	-3305
▁מאחר	-3306
▁שמדינת	-3307
▁בצפון	-3308
▁קיש	-3309
▁אקוניס	-3310
▁מביאים	-3311
▁ארוכה	-3312
▁נגיד	-3313
▁עצמנו	-3314
געו	-3315
▁להצעה	-3316
▁מידע	-3317
▁בכבוד	-3318
ומם	-3319
ודל	-3320
והר	-3321
▁להפוך	-3322
▁פתרונות	-3323
▁ביטן	-3324
יתם	-3325
▁העצמ	-3326
▁ספ	-3327
▁מוחלט	-3328
▁כולה	-3329
דד	-3330
ליטות	-3331
▁שמאל	-3332
יזיה	-3333
▁כבי	-3334
▁נתן	-3335
▁קצב	-3336
▁בחקיקה	-3337
סופו	-3338
דברג	-3339
▁נזק	-3340
▁הנשים	-3341
▁המג	-3342
▁כדאי	-3343
▁בצה	-3344
▁מוכנים	-3345
ילד	-3346
▁שרי	-3347
▁לצערנו	-3348
▁דא	-3349
▁נסים	-3350
▁קרוב	-3351
▁גורמים	-3352
נצל	-3353
▁ומשפט	-3354
נחלויות	-3355
▁בשורה	-3356
▁תן	-3357
▁מכך	-3358
וויכוח	-3359
ופא	-3360
▁שהק	-3361
אורה	-3362
▁תקווה	-3363
▁שלטון	-3364
▁התפקיד	-3365
ברר	-3366
▁יז	-3367
▁כע	-3368
פויות	-3369
▁ישראלים	-3370
▁פיצ	-3371
רווחה	-3372
▁להגיש	-3373
▁משמעותית	-3374
שימת	-3375
▁בהסכ	-3376
▁שקט	-3377
▁ביהודה	-3378
▁כוחות	-3379
▁מעלה	-3380
▁ממני	-3381
▁עמוק	-3382
וגי	-3383
▁אישה	-3384
▁ושלישית	-3385
▁התקבלה	-3386
▁אליהם	-3387
ודעה	-3388
סוך	-3389
▁ברכה	-3390
מונים	-3391
▁מזמן	-3392
▁השעה	-3393
▁בגיל	-3394
▁ביישובים	-3395
▁אופוזיציה	-3396
זכירת	-3397
▁שרוצים	-3398
מודדות	-3399
▁מאתנו	-3400
▁האפשרות	-3401
▁ובין	-3402
▁נכונה	-3403
הג	-3404
▁השל	-3405
▁שטח	-3406
▁בארצות	-3407
▁באופוזיציה	-3408
טרט	-3409
אללה	-3410
▁שוק	-3411
פא	-3412
▁ויה	-3413
▁יחידות	-3414
▁משלמים	-3415
▁החברים	-3416
▁האר	-3417
בך	-3418
▁עבודת	-3419
▁התר	-3420
▁הדרוז	-3421
קורת	-3422
▁אלינו	-3423
▁בעצ	-3424
▁מנג	-3425
▁דיברתי	-3426
▁המשק	-3427
▁מהפ	-3428
▁הקיים	-3429
▁עמאר	-3430
▁והיום	-3431
▁באולם	-3432
לש	-3433
▁ההסדרים	-3434
▁בהס	-3435
▁האיר	-3436
▁הרוב	-3437
▁מדה	-3438
▁מהי	-3439
▁אפר	-3440
▁עסקים	-3441
▁התיקון	-3442
נחם	-3443
▁הקשה	-3444
▁חיו	-3445
▁הכוח	-3446
▁כות	-3447
▁איצ	-3448
▁שבש	-3449
▁להשתמש	-3450
▁במי	-3451
כונים	-3452
▁לסייע	-3453
ינת	-3454
▁דוא	-3455
יתון	-3456
▁פרופ	-3457
▁הנשיא	-3458
▁חסר	-3459
רחב	-3460
אלות	-3461
▁אפס	-3462
▁הגענו	-3463
פיים	-3464
▁הימים	-3465
▁הטר	-3466
▁להילחם	-3467
רקעות	-3468
נף	-3469
רר	-3470
▁החטופים	-3471
▁השלי	-3472
▁להסת	-3473
ייט	-3474
▁חובת	-3475
▁התפ	-3476
▁הולכת	-3477
גרה	-3478
מיר	-3479
▁איציק	-3480
כלו	-3481
▁הרשימה	-3482
▁הטוב	-3483
▁ביר	-3484
▁הנגב	-3485
▁תעשה	-3486
▁תקופה	-3487
▁בנושאים	-3488
▁ליצמן	-3489
▁אמון	-3490
▁מחירי	-3491
▁בינינו	-3492
חרור	-3493
▁בוע	-3494
לאומית	-3495
▁תור	-3496
▁הבאים	-3497
▁סלימאן	-3498
▁איו	-3499
▁להבטיח	-3500
▁נלח	-3501
ונו	-3502
לושה	-3503
▁שהצעת	-3504
▁הלאה	-3505
▁האלימות	-3506
▁תופ	-3507
▁הכלל	-3508
▁מצפה	-3509
▁אלעזר	-3510
חרר	-3511
▁והביטחון	-3512
▁פינ	-3513
▁בחינוך	-3514
כוש	-3515
▁מפר	-3516
▁עודה	-3517
▁קשים	-3518
▁שהכנסת	-3519
%,	-3520
▁t	-3521
דמת	-3522
▁בתים	-3523
▁מוב	-3524
▁עאידה	-3525
▁צוות	-3526
מידה	-3527
▁דרכים	-3528
▁הוצ	-3529
▁שרק	-3530
גישה	-3531
זרו	-3532
▁צעד	-3533
צרים	-3534
▁ומכ	-3535
בינט	-3536
▁למס	-3537
▁המיו	-3538
▁ההסתייגות	-3539
רישה	-3540
▁העברת	-3541
▁בעזה	-3542
▁הקודם	-3543
וקות	-3544
▁להד	-3545
יופיה	-3546
▁נדר	-3547
▁שונה	-3548
▁25	-3549
▁מבח	-3550
▁לשני	-3551
▁הרפורמה	-3552
▁לבן	-3553
ופש	-3554
וויר	-3555
▁בחיים	-3556
▁היחיד	-3557
מרת	-3558
ותרת	-3559
▁שבועות	-3560
▁איזשהו	-3561
מצום	-3562
▁לדחות	-3563
▁כללי	-3564
▁16	-3565
▁פיקוח	-3566
רוך	-3567
ליכים	-3568
▁פורר	-3569
וגות	-3570
▁יחי	-3571
▁בפריפריה	-3572
רגון	-3573
מוקרטי	-3574
▁הגבוה	-3575
▁הבנייה	-3576
▁שיעור	-3577
▁ובק	-3578
שפ	-3579
לילי	-3580
▁מברך	-3581
▁מלחמת	-3582
שום	-3583
▁ליו	-3584
▁שהפ	-3585
▁גדעון	-3586
שרדים	-3587
▁התושבים	-3588
▁המחיה	-3589
▁נור	-3590
שבה	-3591
▁חמד	-3592
▁לחזק	-3593
▁בשמות	-3594
▁המשא	-3595
▁בשוק	-3596
▁אורית	-3597
▁תומא	-3598
ביאו	-3599
▁בקצ	-3600
מנות	-3601
▁בתקופת	-3602
▁40	-3603
מותות	-3604
▁נתנו	-3605
▁קבוע	-3606
▁לחקיקה	-3607
▁גילאון	-3608
▁בצל	-3609
▁ניר	-3610
▁קרן	-3611
▁דני	-3612
▁זנ	-3613
ימות	-3614
▁החשמל	-3615
▁במשק	-3616
ניסיון	-3617
דור	-3618
רונו	-3619
▁חלקם	-3620
▁ובאמת	-3621
ושר	-3622
▁צור	-3623
▁מתנה	-3624
▁מוסדות	-3625
▁תוק	-3626
▁משטרת	-3627
וסק	-3628
▁לבקש	-3629
נז	-3630
▁ההיסטוריה	-3631
▁מאחורי	-3632
▁האזור	-3633
▁הייתם	-3634
▁שכולנו	-3635
▁בוועדות	-3636
בחן	-3637
-8	-3638
קש	-3639
▁להפסיק	-3640
כוי	-3641
וביץ	-3642
▁מילים	-3643
▁עומדת	-3644
▁מבקר	-3645
▁בראשות	-3646
בטח	-3647
▁היחס	-3648
▁מהות	-3649
▁והכ	-3650
▁אמרנו	-3651
▁נול	-3652
▁שנפ	-3653
▁היר	-3654
טע	-3655
▁מלה	-3656
▁תמר	-3657
▁שמולי	-3658
▁בהצעה	-3659
▁הגב	-3660
▁שניתן	-3661
תקיים	-3662
יעת	-3663
▁גורם	-3664
▁ארוך	-3665
בצע	-3666
▁רשא	-3667
▁ברוב	-3668
גדל	-3669
▁1,	-3670
▁זנדברג	-3671
יגה	-3672
▁קטנה	-3673
▁שמק	-3674
▁קטנים	-3675
▁המדינות	-3676
▁התהליך	-3677
▁ואחרים	-3678
▁לנשים	-3679
▁שחבר	-3680
ריכה	-3681
▁להגנת	-3682
▁בתחילת	-3683
▁חברתית	-3684
בירו	-3685
▁להשק	-3686
▁אופן	-3687
▁עברו	-3688
ריז	-3689
▁יוז	-3690
▁לנסות	-3691
דוד	-3692
▁הער	-3693
▁לחלק	-3694
לוח	-3695
באס	-3696
▁הבעיות	-3697
▁רצון	-3698
גייס	-3699
▁שאלתי	-3700
▁קשות	-3701
טוי	-3702
▁למת	-3703
▁קוד	-3704
▁לנצל	-3705
▁השפ	-3706
▁שחלק	-3707
קח	-3708
ורר	-3709
▁שהס	-3710
פרד	-3711
לוונט	-3712
▁רוט	-3713
נסיה	-3714
▁שקד	-3715
טפל	-3716
ווכח	-3717
▁עוז	-3718
▁יהדות	-3719
▁לשנת	-3720
▁לחברה	-3721
▁המחירים	-3722
זרים	-3723
וסט	-3724
▁תיא	-3725
▁לאזרחים	-3726
▁נתק	-3727
יתכן	-3728
▁בחוץ	-3729
▁שלח	-3730
כמים	-3731
▁בדרום	-3732
▁ארדן	-3733
▁זועבי	-3734
▁ציפי	-3735
▁הבלתי	-3736
▁אזור	-3737
00,000	-3738
▁והיה	-3739
▁שיותר	-3740
▁מירי	-3741
▁מאיפה	-3742
▁מודיע	-3743
▁תמיכה	-3744
▁חשיבות	-3745
▁לדברים	-3746
▁אמת	-3747
בינו	-3748
בנה	-3749
בדוק	-3750
▁ויצ	-3751
▁הגנה	-3752
▁אחראי	-3753
לאה	-3754
▁יקבלו	-3755
▁לתוך	-3756
▁האק	-3757
▁הנכון	-3758
▁במרכז	-3759
▁תקופת	-3760
▁שאף	-3761
▁תשמע	-3762
▁להביע	-3763
▁שבעצם	-3764
בנות	-3765
▁איימן	-3766
▁צב	-3767
▁אמצ	-3768
▁חוש	-3769
▁ואיך	-3770
▁ההזדמנות	-3771
▁במוס	-3772
▁חק	-3773
▁שאינם	-3774
▁עשתה	-3775
▁כב	-3776
▁חמישה	-3777
ומט	-3778
▁מהלך	-3779
▁סול	-3780
▁תומך	-3781
סון	-3782
▁סיפ	-3783
▁שכח	-3784
%.	-3785
▁מסוימים	-3786
כנים	-3787
▁הקש	-3788
בילה	-3789
▁הפרק	-3790
▁מציאות	-3791
▁הלאומית	-3792
▁פריג	-3793
▁וחלילה	-3794
▁כיצד	-3795
▁ולכל	-3796
▁נאל	-3797
▁שנעשה	-3798
▁לוקחים	-3799
▁גבי	-3800
▁נציגי	-3801
▁אילן	-3802
▁דומה	-3803
▁תנאי	-3804
▁רוזין	-3805
▁האישה	-3806
▁ושם	-3807
▁פקודת	-3808
▁תקנות	-3809
▁ביקשתי	-3810
▁ומו	-3811
▁עודד	-3812
▁פטור	-3813
▁בכמה	-3814
▁הנושאים	-3815
▁השלישית	-3816
▁חדשות	-3817
▁כשיש	-3818
▁וברא	-3819
▁רחוק	-3820
▁חיילי	-3821
▁שבכל	-3822
יחוד	-3823
▁שבהן	-3824
▁בינו	-3825
▁מהצ	-3826
▁השכר	-3827
▁טופ	-3828
▁שנח	-3829
▁עבירות	-3830
▁הדיונים	-3831
▁הצלח	-3832
▁תגידו	-3833
קום	-3834
דירה	-3835
▁תד	-3836
▁ברצ	-3837
פחת	-3838
יריית	-3839
▁שלם	-3840
כתוב	-3841
▁לקנות	-3842
▁מאיתנו	-3843
נטיש	-3844
▁החברות	-3845
▁עבאס	-3846
▁אשמח	-3847
▁יקבל	-3848
▁לאומית	-3849
▁שעושים	-3850
▁50	-3851
▁נקבע	-3852
▁אוח	-3853
▁קיי	-3854
▁השבת	-3855
▁האחרים	-3856
משים	-3857
▁נדבר	-3858
▁שהשר	-3859
▁ואחרי	-3860
▁כתוצאה	-3861
▁בינתיים	-3862
▁שבועיים	-3863
▁אנא	-3864
כונת	-3865
דיק	-3866
▁לקח	-3867
▁עיסא	-3868
▁וז	-3869
ברתית	-3870
▁איילת	-3871
▁הלימודים	-3872
צור	-3873
▁שטי	-3874
▁עבירה	-3875
ישי	-3876
▁שכולם	-3877
▁ראויה	-3878
▁אתו	-3879
▁שזאת	-3880
▁וראש	-3881
▁הערביים	-3882
▁המליאה	-3883
▁שאמרת	-3884
▁גלא	-3885
▁17	-3886
▁בשלב	-3887
▁בהקשר	-3888
וגרים	-3889
▁הזכויות	-3890
▁באת	-3891
ובע	-3892
▁בציבור	-3893
▁הפס	-3894
▁שופטים	-3895
▁לחל	-3896
▁מאל	-3897
▁אתנו	-3898
▁ולצ	-3899
כור	-3900
▁ועו	-3901
וניים	-3902
יור	-3903
▁קיבלתי	-3904
▁ויו	-3905
▁השכל	-3906
תפות	-3907
▁אבק	-3908
זענות	-3909
▁אכפת	-3910
▁גנץ	-3911
▁נאום	-3912
▁שניים	-3913
▁ביבי	-3914
▁לשב	-3915
▁הצעירים	-3916
▁הצה	-3917
▁תקציבי	-3918
▁שהמש	-3919
▁שהדבר	-3920
מוביץ	-3921
▁הקיצ	-3922
▁שרון	-3923
כהן	-3924
▁השונים	-3925
ותן	-3926
וליה	-3927
▁תקציבים	-3928
▁האמריק	-3929
▁המילואים	-3930
▁מרים	-3931
▁שישה	-3932
▁לזכור	-3933
רבע	-3934
▁לעת	-3935
▁התנועה	-3936
▁שקר	-3937
מרות	-3938
▁הפתרון	-3939
יעור	-3940
▁גוף	-3941
▁סעדי	-3942
▁בהכ	-3943
▁שהכ	-3944
▁שאומרים	-3945
▁בהרבה	-3946
▁מלכ	-3947
▁קצר	-3948
▁קריב	-3949
סיקו	-3950
ביעת	-3951
▁גלאון	-3952
▁המשבר	-3953
▁ארגוני	-3954
אק	-3955
▁24	-3956
פיין	-3957
לכת	-3958
▁הסיבה	-3959
▁הקואליצ	-3960
▁אתך	-3961
▁קטי	-3962
▁איתו	-3963
▁בכוח	-3964
▁לסגור	-3965
שתו	-3966
▁אוהב	-3967
▁ולהע	-3968
▁הקשר	-3969
▁האש	-3970
▁לבע	-3971
▁עתי	-3972
▁לטיפול	-3973
▁שמישהו	-3974
▁סער	-3975
▁מפור	-3976
▁חזק	-3977
וחלט	-3978
יקת	-3979
▁מיוחדת	-3980
▁ההחלטות	-3981
▁להוביל	-3982
▁לפר	-3983
▁המגזר	-3984
▁צעיר	-3985
לתם	-3986
▁שיפ	-3987
▁פשוטה	-3988
ומן	-3989
צחון	-3990
▁מלאה	-3991
▁קרעי	-3992
▁הורים	-3993
אד	-3994
▁צד	-3995
▁הביניים	-3996
▁הנפש	-3997
▁הפוליטית	-3998
▁ודי	-3999
▁מינה	-4000
דיו	-4001
▁כסיף	-4002
▁תבוא	-4003
▁עיסאווי	-4004
▁מצוין	-4005
▁מרכזי	-4006
▁בהצבעה	-4007
▁אפליה	-4008
▁בעיית	-4009
▁ברשותך	-4010
▁התיכון	-4011
ליחו	-4012
▁מפלגה	-4013
▁הפעילות	-4014
ec	-4015
▁פיר	-4016
▁שנית	-4017
▁החיילים	-4018
▁רקע	-4019
▁נקרא	-4020
▁עונה	-4021
▁הדובר	-4022
▁לקידום	-4023
▁להרחיב	-4024
▁וט	-4025
▁מנד	-4026
▁החדשה	-4027
▁המיני	-4028
▁עורכי	-4029
נסור	-4030
▁בוקר	-4031
-9	-4032
▁חקלא	-4033
▁התופעה	-4034
▁וחלק	-4035
צלחה	-4036
▁הבמה	-4037
בדו	-4038
▁זר	-4039
▁עליך	-4040
▁איכות	-4041
וכלוסיות	-4042
ברנו	-4043
▁פועלים	-4044
▁לסיום	-4045
▁ליום	-4046
▁ובעיקר	-4047
▁ובח	-4048
▁גילה	-4049
▁ידעו	-4050
▁ליצור	-4051
▁והמש	-4052
▁מנחם	-4053
▁לרגע	-4054
שאיר	-4055
▁תמי	-4056
▁איסור	-4057
▁הסכמה	-4058
מדים	-4059
▁מוט	-4060
▁עמית	-4061
שבים	-4062
▁תלמידים	-4063
▁בוח	-4064
▁הזכ	-4065
▁מדו	-4066
▁הנוכחי	-4067
מנע	-4068
▁שבח	-4069
▁ואמרתי	-4070
מותה	-4071
מציה	-4072
▁שוטרים	-4073
▁הפג	-4074
▁ובל	-4075
▁נשאר	-4076
▁טעות	-4077
צא	-4078
▁מוגבל	-4079
גבי	-4080
▁בבע	-4081
▁רכב	-4082
▁רמת	-4083
▁עוצ	-4084
▁משלם	-4085
▁קוראת	-4086
ומך	-4087
▁ביטחוני	-4088
▁שירותים	-4089
טריונים	-4090
▁לבתי	-4091
▁לסגן	-4092
▁יעשה	-4093
מפ	-4094
▁ללי	-4095
▁פות	-4096
▁החז	-4097
▁לכאורה	-4098
▁בצלאל	-4099
▁מחלק	-4100
טרות	-4101
▁ולמה	-4102
▁טור	-4103
▁לרבות	-4104
מונות	-4105
▁ינון	-4106
בעי	-4107
ילא	-4108
▁חייהם	-4109
▁בתפקיד	-4110
וונים	-4111
▁הציוני	-4112
▁הקהילה	-4113
דמים	-4114
▁ההסכם	-4115
▁אבקסיס	-4116
וגר	-4117
▁פרטי	-4118
▁ייתכן	-4119
▁הפלסטיני	-4120
מטכ	-4121
▁הכר	-4122
▁חרדי	-4123
▁שאלת	-4124
▁התוצאה	-4125
טנ	-4126
▁לשלום	-4127
ישות	-4128
▁נפתלי	-4129
צערי	-4130
▁כמדינה	-4131
▁האנו	-4132
▁קבוצה	-4133
▁סעיפים	-4134
חמאס	-4135
▁וית	-4136
רצו	-4137
▁חוב	-4138
ונש	-4139
קרים	-4140
▁ביתנו	-4141
▁גולן	-4142
▁מסוד	-4143
לכה	-4144
▁לגור	-4145
▁עול	-4146
▁בקשה	-4147
סיקים	-4148
▁האחד	-4149
▁פועל	-4150
פך	-4151
נאה	-4152
כולות	-4153
▁המור	-4154
▁אפשרי	-4155
יבוי	-4156
ארי	-4157
יתוף	-4158
▁הקרקע	-4159
▁טלב	-4160
▁נותנת	-4161
ואות	-4162
▁יוצאים	-4163
▁פול	-4164
▁וכש	-4165
שאר	-4166
▁טועה	-4167
▁להסתכל	-4168
▁שבמ	-4169
▁לני	-4170
▁השיכון	-4171
▁החברתיים	-4172
גון	-4173
▁בפע	-4174
▁מסוכ	-4175
▁משל	-4176
▁יכולות	-4177
▁שמקבל	-4178
▁3.	-4179
▁הבוקר	-4180
ומני	-4181
▁המוצ	-4182
▁באמצע	-4183
▁הורוביץ	-4184
▁ומר	-4185
ונם	-4186
▁סיי	-4187
▁גרמן	-4188
▁תלוי	-4189
▁רם	-4190
▁טרומית	-4191
▁ממשיך	-4192
▁הסתה	-4193
▁כשהם	-4194
▁בדרכים	-4195
מצב	-4196
▁וקב	-4197
▁להכיר	-4198
▁במקרים	-4199
טלה	-4200
▁עופר	-4201
יקום	-4202
מורה	-4203
פעמים	-4204
▁המוצע	-4205
▁העדי	-4206
▁אוסא	-4207
▁מסעוד	-4208
▁שט	-4209
▁יוסי	-4210
▁אוסאמה	-4211
▁אוכלוסייה	-4212
וטף	-4213
▁לנס	-4214
▁סופר	-4215
▁איתנו	-4216
▁עשרה	-4217
משיכו	-4218
▁המדיני	-4219
▁דה	-4220
▁קבוצת	-4221
▁שותפים	-4222
רגיה	-4223
▁דיברנו	-4224
▁בפניכם	-4225
▁אבא	-4226
▁מועצת	-4227
▁לגב	-4228
▁דעתי	-4229
▁ציון	-4230
▁לבחור	-4231
ינות	-4232
מירה	-4233
▁קבלת	-4234
▁קיבלה	-4235
וריה	-4236
▁הוס	-4237
▁ולתת	-4238
▁עליזה	-4239
▁לתח	-4240
▁הסוגיה	-4241
▁מפה	-4242
▁ממשלתית	-4243
▁ההתיישבות	-4244
▁נגמר	-4245
▁סביר	-4246
▁בחשבון	-4247
רתם	-4248
▁מקור	-4249
▁חיס	-4250
▁הלך	-4251
▁הפערים	-4252
נך	-4253
▁הציונות	-4254
▁איזושהי	-4255
▁ובוודאי	-4256
▁ירד	-4257
▁התחיל	-4258
▁מצא	-4259
▁שוו	-4260
▁הגיעה	-4261
וניות	-4262
▁ידוע	-4263
▁ילדי	-4264
▁מבית	-4265
▁מאמינים	-4266
▁שז	-4267
▁מאה	-4268
ישלון	-4269
1.	-4270
אלו	-4271
▁מתאים	-4272
▁המקומית	-4273
פלא	-4274
▁ואחד	-4275
▁יצאו	-4276
▁קואליצ	-4277
▁להיע	-4278
ובדה	-4279
▁להתח	-4280
בקשת	-4281
▁פרץ	-4282
שיג	-4283
▁הביטוי	-4284
▁נתקבלה	-4285
▁הביטחוני	-4286
▁הסטודנטים	-4287
▁בסכ	-4288
דווקא	-4289
ובלים	-4290
למו	-4291
▁היד	-4292
▁האמור	-4293
▁והממשלה	-4294
▁ומק	-4295
▁אלהרר	-4296
▁פט	-4297
▁איתם	-4298
▁בערך	-4299
▁מסכימים	-4300
▁הקו	-4301
▁עובדות	-4302
▁ביטול	-4303
▁תחבורה	-4304
▁העצ	-4305
אלת	-4306
▁איתי	-4307
▁הדוח	-4308
▁שעוד	-4309
▁שהנושא	-4310
▁תושבים	-4311
ערכה	-4312
▁הבן	-4313
▁הרכב	-4314
▁מומ	-4315
▁משטרה	-4316
▁תכנון	-4317
▁בתקשורת	-4318
שלום	-4319
▁והרווחה	-4320
▁המקומי	-4321
▁הקצ	-4322
▁עצם	-4323
צועים	-4324
▁אתיופיה	-4325
וכר	-4326
▁להחליט	-4327
גני	-4328
רוני	-4329
▁קיבלנו	-4330
אתם	-4331
▁הרצוג	-4332
▁ויל	-4333
▁אילו	-4334
▁מילואים	-4335
▁יולי	-4336
ניעת	-4337
▁ובצ	-4338
▁שהציבור	-4339
▁להישאר	-4340
▁תשת	-4341
▁לייש	-4342
▁המט	-4343
▁דיבור	-4344
▁מובן	-4345
▁פרטית	-4346
ירופה	-4347
▁טלי	-4348
▁מצוי	-4349
יץ	-4350
בהיר	-4351
טרוק	-4352
וקרט	-4353
▁לצמצם	-4354
▁השוויון	-4355
ובלת	-4356
▁ערים	-4357
פקד	-4358
▁אמי	-4359
▁מוכרח	-4360
▁ביצ	-4361
▁בנטל	-4362
▁בשני	-4363
נהג	-4364
ריד	-4365
ידוע	-4366
מדות	-4367
▁גמור	-4368
▁חשמל	-4369
▁הימין	-4370
▁איתך	-4371
למנ	-4372
▁טיפ	-4373
▁הפיקוח	-4374
▁להאריך	-4375
שבע	-4376
▁השמאל	-4377
▁מוסי	-4378
▁בסעיף	-4379
▁להשקיע	-4380
מצים	-4381
מליאל	-4382
▁הוועדות	-4383
ליאת	-4384
גינים	-4385
▁להציל	-4386
▁מלכיאלי	-4387
▁בלילה	-4388
▁כנו	-4389
▁גמליאל	-4390
▁הכוונה	-4391
▁והבריאות	-4392
ונח	-4393
▁גאה	-4394
נהגות	-4395
▁לסכם	-4396
▁במלחמה	-4397
▁פעמיים	-4398
▁ונת	-4399
▁העיקר	-4400
▁היע	-4401
▁בבחירות	-4402
▁שלפני	-4403
▁מצט	-4404
טיב	-4405
▁מינית	-4406
▁כפר	-4407
ובב	-4408
▁באשר	-4409
▁הקרי	-4410
ווח	-4411
ינם	-4412
▁שיתוף	-4413
▁הרעיון	-4414
בוק	-4415
▁דיברו	-4416
▁מוגבלות	-4417
▁יישוב	-4418
▁שצריכים	-4419
▁יחימוביץ	-4420
▁ויע	-4421
▁רצה	-4422
▁לבחון	-4423
▁בטל	-4424
כתי	-4425
▁רון	-4426
▁כלים	-4427
▁המפלגה	-4428
▁באחריות	-4429
▁לאותו	-4430
▁תקשורת	-4431
עדה	-4432
▁אליי	-4433
▁שינויים	-4434
▁חזקה	-4435
▁אמירה	-4436
▁יוקר	-4437
שרו	-4438
וגים	-4439
▁בטרור	-4440
▁הסיוע	-4441
▁בפרט	-4442
▁החלק	-4443
▁שמות	-4444
▁הצפון	-4445
▁ובכלל	-4446
כשיר	-4447
▁צבי	-4448
▁המידע	-4449
▁שקשור	-4450
▁מאזן	-4451
▁מפע	-4452
▁חייל	-4453
פיד	-4454
▁זרים	-4455
▁רפורמה	-4456
▁הפריפריה	-4457
▁ויג	-4458
▁הצוות	-4459
▁נמוך	-4460
▁ובג	-4461
▁בתוכנית	-4462
▁מזל	-4463
▁פיג	-4464
▁בעתיד	-4465
▁הלאום	-4466
ייתי	-4467
▁בקשר	-4468
▁שהג	-4469
▁פרוש	-4470
▁מנסור	-4471
▁מסוכן	-4472
▁האישי	-4473
▁מבצע	-4474
▁רציני	-4475
▁ולד	-4476
▁מרי	-4477
▁דבריו	-4478
"?	-4479
▁מולה	-4480
▁סב	-4481
פקת	-4482
▁כביש	-4483
▁סיעות	-4484
▁עקב	-4485
▁נגיע	-4486
ערך	-4487
▁והכול	-4488
▁מבינה	-4489
▁הנוער	-4490
ecd	-4491
oecd	-4492
▁הבח	-4493
▁קראתי	-4494
▁קארין	-4495
קן	-4496
יתונאים	-4497
במבר	-4498
▁הון	-4499
▁שעברה	-4500
▁למשפחות	-4501
סום	-4502
▁כזו	-4503
▁העלאת	-4504
▁שעושה	-4505
▁אע	-4506
▁הרוח	-4507
▁תעשו	-4508
▁הגורמים	-4509
▁דיכ	-4510
תיקה	-4511
▁ערוץ	-4512
▁לתפקיד	-4513
ציין	-4514
ירייה	-4515
▁טע	-4516
▁ייתן	-4517
▁תשובות	-4518
▁הפוליטי	-4519
▁קרקע	-4520
4.	-4521
▁אוב	-4522
ואית	-4523
▁ביצוע	-4524
▁הבדל	-4525
רגונים	-4526
▁ולס	-4527
▁מגיעה	-4528
▁אמורים	-4529
▁החלשות	-4530
▁מערכות	-4531
▁סטודנטים	-4532
▁הפך	-4533
▁פערים	-4534
▁אידי	-4535
▁שאינו	-4536
ורוקרט	-4537
▁הדירות	-4538
כמה	-4539
▁הצבאי	-4540
▁קה	-4541
▁פיתוח	-4542
▁תופעה	-4543
▁במדינות	-4544
יניץ	-4545
▁בועז	-4546
▁מצליחים	-4547
▁נר	-4548
▁השאילתה	-4549
▁הפעולה	-4550
ישון	-4551
▁נקודה	-4552
▁בקרי	-4553
▁תשלום	-4554
▁פלסטינים	-4555
▁והיו	-4556
▁לשנה	-4557
▁מיום	-4558
▁במזרח	-4559
▁רבין	-4560
▁אינני	-4561
▁זוכרים	-4562
▁מחבלים	-4563
חתת	-4564
▁טובות	-4565
▁זיה	-4566
▁גלנט	-4567
▁משם	-4568
▁רחבה	-4569
▁סיל	-4570
▁החקירה	-4571
▁כר	-4572
תיחת	-4573
▁חוז	-4574
▁יסוד	-4575
▁רותם	-4576
▁שמשרד	-4577
ייה	-4578
▁מכבד	-4579
▁להפריע	-4580
טרטג	-4581
שתות	-4582
▁האכיפה	-4583
כרז	-4584
▁שבעה	-4585
▁תוצאות	-4586
▁דעות	-4587
▁ברירה	-4588
▁חינם	-4589
▁בערבית	-4590
▁זהבה	-4591
▁השלישי	-4592
▁הוגשו	-4593
▁פוליטיים	-4594
גיטי	-4595
נחלים	-4596
▁לעודד	-4597
▁התלמידים	-4598
גדור	-4599
▁ערכים	-4600
▁שלישי	-4601
▁מהן	-4602
▁מיליוני	-4603
▁לעצמי	-4604
▁תעלה	-4605
▁פג	-4606
▁ישר	-4607
▁מתחילים	-4608
▁בלש	-4609
▁ובכן	-4610
▁סכום	-4611
▁לוותר	-4612
▁תחום	-4613
▁שיקול	-4614
▁מפלגות	-4615
▁תושב	-4616
וכיח	-4617
צמבר	-4618
▁כחלון	-4619
▁ממשרד	-4620
▁המדע	-4621
ושת	-4622
▁העסק	-4623
▁שטייניץ	-4624
▁שותף	-4625
▁ולו	-4626
מתם	-4627
▁אחדות	-4628
▁a	-4629
▁רחב	-4630
ודא	-4631
▁עוסקים	-4632
▁הגר	-4633
▁הליך	-4634
▁הפגיעה	-4635
▁לירושלים	-4636
▁199	-4637
▁ניצן	-4638
▁צבאי	-4639
▁השונות	-4640
▁כשב	-4641
▁היות	-4642
▁במקביל	-4643
▁מצליח	-4644
דרוס	-4645
▁סיום	-4646
▁חוזרים	-4647
▁הנס	-4648
▁מתג	-4649
▁שעש	-4650
▁אליהו	-4651
▁האלו	-4652
▁מוזס	-4653
▁מהקואליציה	-4654
3.	-4655
גוריון	-4656
▁מהכנסת	-4657
▁מעמ	-4658
▁לרשויות	-4659
▁מקצועית	-4660
▁ארבל	-4661
▁למנות	-4662
▁בעבודה	-4663
▁פינדרוס	-4664
in	-4665
▁למערכת	-4666
▁מרד	-4667
▁נבחר	-4668
▁הנאום	-4669
▁עליהן	-4670
דוח	-4671
▁פלסטינית	-4672
זמן	-4673
שרדי	-4674
▁הנכ	-4675
▁המזרח	-4676
וסטר	-4677
יניים	-4678
▁עדים	-4679
▁מטע	-4680
למנטרית	-4681
▁ברחבי	-4682
▁ואמרו	-4683
▁לעסוק	-4684
▁שעומד	-4685
יסים	-4686
▁זוהר	-4687
ליה	-4688
צרו	-4689
צבעות	-4690
▁הנחה	-4691
רגיש	-4692
עויות	-4693
▁ולעשות	-4694
▁קבוצות	-4695
▁הפרלמנט	-4696
▁לכלל	-4697
▁מכר	-4698
מפיין	-4699
▁הוע	-4700
▁להגדיל	-4701
סו	-4702
נתו	-4703
▁זע	-4704
נראה	-4705
▁לביא	-4706
▁החברתית	-4707
▁ואפשר	-4708
▁יוליה	-4709
ורג	-4710
כבים	-4711
▁העצמאות	-4712
חית	-4713
ערכות	-4714
▁בשבי	-4715
▁ליוע	-4716
▁לשלוח	-4717
▁להזמין	-4718
▁חזר	-4719
וגית	-4720
▁קבל	-4721
▁מהצד	-4722
פיסה	-4723
▁לאלה	-4724
▁סימון	-4725
זמה	-4726
▁בקדנציה	-4727
▁לשק	-4728
▁נמו	-4729
▁ישיבה	-4730
▁לפועל	-4731
▁נתקבל	-4732
▁סרט	-4733
▁ועדיין	-4734
▁לאף	-4735
▁מסדר	-4736
▁מקובל	-4737
▁ממשלות	-4738
▁הטי	-4739
▁שקור	-4740
▁באותם	-4741
▁בינואר	-4742
▁השופט	-4743
▁מעריך	-4744
המ	-4745
▁לדין	-4746
▁המיעוט	-4747
ליב	-4748
נצי	-4749
טרכו	-4750
▁הגדולים	-4751
▁מרגיש	-4752
צית	-4753
▁שעשו	-4754
▁אורבך	-4755
▁דיכטר	-4756
רחש	-4757
▁יציג	-4758
▁סו	-4759
▁אוו	-4760
▁מהכ	-4761
בקשים	-4762
ובסקי	-4763
טול	-4764
▁אסביר	-4765
▁הכללי	-4766
▁המנו	-4767
▁והנה	-4768
▁להיפ	-4769
משלתית	-4770
▁דיברת	-4771
▁ההגנה	-4772
רישות	-4773
▁לרצ	-4774
▁הלילה	-4775
▁להציע	-4776
▁הוויכוח	-4777
▁מעוז	-4778
פלגת	-4779
▁שהב	-4780
▁להשלים	-4781
▁כספי	-4782
▁להתא	-4783
▁מכלוף	-4784
▁גברים	-4785
▁והדבר	-4786
זוק	-4787
▁הקול	-4788
▁החוצה	-4789
▁סטרוק	-4790
▁מחירים	-4791
יווח	-4792
▁מהמש	-4793
▁מוצא	-4794
לשטיין	-4795
▁העתיד	-4796
▁עובדת	-4797
▁מענק	-4798
2.	-4799
וליטיקה	-4800
▁גבול	-4801
▁חילו	-4802
סטית	-4803
מכות	-4804
▁ברמת	-4805
▁תכף	-4806
▁מיעוט	-4807
ציות	-4808
▁לקרות	-4809
▁מהבית	-4810
יפות	-4811
▁ושה	-4812
▁טוע	-4813
▁כהנא	-4814
▁לחוקק	-4815
▁לקו	-4816
▁הכיבוש	-4817
▁הצלחה	-4818
בסקי	-4819
▁מחוק	-4820
▁להקריא	-4821
זוג	-4822
▁חוס	-4823
▁מכתב	-4824
▁משפטי	-4825
▁בזמנו	-4826
▁היישוב	-4827
דתי	-4828
▁דול	-4829
▁מועד	-4830
▁נמנע	-4831
ילתא	-4832
פתחות	-4833
▁מקבלת	-4834
יכך	-4835
▁אדלשטיין	-4836
קנות	-4837
▁המוש	-4838
▁השאר	-4839
▁קיום	-4840
▁אכיפה	-4841
▁לפיכך	-4842
5.	-4843
▁החש	-4844
▁שכש	-4845
▁לבקר	-4846
ייך	-4847
ילתות	-4848
▁לבחירות	-4849
▁המרכזי	-4850
▁השינוי	-4851
▁עיריית	-4852
▁הכת	-4853
רונית	-4854
▁מוות	-4855
▁אישום	-4856
▁באיזו	-4857
▁מסתכלים	-4858
▁אביגדור	-4859
יסוק	-4860
▁הנק	-4861
▁העסקים	-4862
גרי	-4863
▁שואלים	-4864
▁שרן	-4865
▁הלכה	-4866
▁בצדק	-4867
▁זכאי	-4868
▁מוציא	-4869
▁עשיתי	-4870
▁רוטמן	-4871
▁שמב	-4872
▁פסק	-4873
▁תומכים	-4874
▁עמר	-4875
▁הפוך	-4876
▁ביטח	-4877
צעים	-4878
▁אלון	-4879
▁נז	-4880
▁כחלק	-4881
▁זוהי	-4882
▁המיוחד	-4883
רכן	-4884
▁לנת	-4885
דמנו	-4886
▁אורן	-4887
וויה	-4888
כיפת	-4889
▁לדוגמה	-4890
▁מנגנון	-4891
בלי	-4892
ראינו	-4893
▁מתחייב	-4894
רנונה	-4895
מלה	-4896
▁אמיר	-4897
▁הסעיף	-4898
▁העדה	-4899
▁הקבוע	-4900
יצור	-4901
כנולוגיה	-4902
▁התקציבים	-4903
בדל	-4904
רשות	-4905
▁אימא	-4906
▁שעדיין	-4907
▁חזן	-4908
▁לכבוד	-4909
▁צעדים	-4910
גלים	-4911
▁עיק	-4912
▁רצו	-4913
▁לממש	-4914
▁להשיג	-4915
▁במועד	-4916
▁מדיני	-4917
▁בקשות	-4918
▁מחייב	-4919
לינובסקי	-4920
דיון	-4921
▁יתר	-4922
▁ענק	-4923
▁הטבע	-4924
▁אוחנה	-4925
▁התכ	-4926
אלוף	-4927
לכים	-4928
▁שוח	-4929
▁בעיניי	-4930
▁ושי	-4931
▁לשפר	-4932
▁ההסדר	-4933
▁מאמץ	-4934
▁במידה	-4935
▁למלחמה	-4936
▁התעסוקה	-4937
גילה	-4938
▁מתוק	-4939
▁הכלים	-4940
▁המוסד	-4941
▁היהדות	-4942
▁ההשת	-4943
▁להטיל	-4944
חיים	-4945
▁אדבר	-4946
תר	-4947
▁גזענות	-4948
▁הממשלתית	-4949
▁המהלך	-4950
פיע	-4951
יימו	-4952
▁כלכלה	-4953
▁מלינובסקי	-4954
▁במא	-4955
▁האנ	-4956
▁תשמ	-4957
▁בשפה	-4958
▁כחבר	-4959
▁להסדיר	-4960
▁להצטרף	-4961
נדה	-4962
▁להיא	-4963
▁לאזרחי	-4964
▁גבולות	-4965
▁לפרוטוקול	-4966
▁תנאים	-4967
▁המינימום	-4968
שבתי	-4969
▁מערך	-4970
▁במאבק	-4971
▁מציעים	-4972
▁לעצמו	-4973
▁העובדות	-4974
▁מעבירים	-4975
מניה	-4976
▁שאר	-4977
נטל	-4978
▁בהיק	-4979
▁ובמק	-4980
▁להסיר	-4981
▁תמשיך	-4982
▁שאילתה	-4983
▁בגד	-4984
▁שמעון	-4985
▁שהגיעו	-4986
▁הצלחנו	-4987
▁לצע	-4988
▁המחאה	-4989
חילו	-4990
▁אלפים	-4991
▁בשר	-4992
▁מדהים	-4993
ודע	-4994
▁ההוצאה	-4995
▁הוות	-4996
▁הדרכים	-4997
▁ימ	-4998
▁מות	-4999
ריב	-5000
▁להחלט	-5001
רויקטים	-5002
▁התקופה	-5003
▁ליהודים	-5004
▁לחיים	-5005
▁יעשו	-5006
▁מאחור	-5007
▁באירוע	-5008
▁סוציא	-5009
▁ההע	-5010
ברג	-5011
▁להרוס	-5012
▁ייח	-5013
▁שחי	-5014
▁הביא	-5015
▁לשכנע	-5016
לוויזיה	-5017
▁ולקריאה	-5018
▁60	-5019
פורמות	-5020
50	-5021
▁והגנת	-5022
▁הסמכות	-5023
▁שיושבים	-5024
-100	-5025
▁מינהל	-5026
▁לומדים	-5027
▁השח	-5028
▁מכירה	-5029
▁יעזור	-5030
▁ראה	-5031
▁נכש	-5032
▁מספרים	-5033
▁במוסדות	-5034
▁שמית	-5035
▁הית	-5036
▁מחבר	-5037
▁עשיתם	-5038
▁למשטרה	-5039
▁נקודות	-5040
▁אלדד	-5041
▁מינימום	-5042
רפ	-5043
רכיב	-5044
▁שעכשיו	-5045
▁הרצח	-5046
▁תשתיות	-5047
▁דם	-5048
8.	-5049
▁לגיל	-5050
▁יוצאי	-5051
▁לנק	-5052
▁הדתית	-5053
ארץ	-5054
▁האמיתי	-5055
▁ההיסטור	-5056
וסקים	-5057
▁פיז	-5058
▁שמים	-5059
▁שעד	-5060
▁תשומת	-5061
▁נדרש	-5062
▁הצדדים	-5063
רוויח	-5064
▁הפשיעה	-5065
▁בעיניים	-5066
▁באוניברסי	-5067
▁אידיאול	-5068
▁אנטי	-5069
▁דודי	-5070
▁השיח	-5071
שנתי	-5072
▁היצ	-5073
▁2024,	-5074
דיקה	-5075
ועות	-5076
יתיים	-5077
▁התיירות	-5078
▁מסר	-5079
▁סכנה	-5080
▁המחוז	-5081
▁זכרו	-5082
▁ומשרד	-5083
▁הרבנות	-5084
▁חייו	-5085
▁השאלות	-5086
▁ומתן	-5087
▁ההצעות	-5088
חתה	-5089
▁ברא	-5090
יבט	-5091
טורי	-5092
עונות	-5093
▁מזון	-5094
▁שיבוא	-5095
▁הגיוני	-5096
▁להודיעכם	-5097
▁תעסוקה	-5098
▁אוט	-5099
ורובסקי	-5100
▁מדר	-5101
לחמות	-5102
▁בשי	-5103
▁יבואו	-5104
▁רופאים	-5105
▁חט	-5106
▁התמ	-5107
▁המקומות	-5108
אווה	-5109
▁המשרדים	-5110
▁וקבוצת	-5111
▁תאונות	-5112
▁וכד	-5113
▁להקל	-5114
▁הראוי	-5115
סין	-5116
▁התקנון	-5117
חל	-5118
▁מטי	-5119
ומץ	-5120
יקות	-5121
▁במציאות	-5122
▁השימוש	-5123
▁חודשיים	-5124
▁העול	-5125
▁לפתח	-5126
▁מאוחר	-5127
▁יג	-5128
בוטי	-5129
▁אגף	-5130
▁בכפר	-5131
▁שחברי	-5132
יקאים	-5133
רוזים	-5134
מחה	-5135
▁עזר	-5136
▁מקרי	-5137
▁התנגדות	-5138
▁ספצי	-5139
▁הופך	-5140
▁יפעת	-5141
▁היסוד	-5142
מתו	-5143
מורים	-5144
▁בזכויות	-5145
▁שנוכל	-5146
▁לאזרח	-5147
▁ממשלתי	-5148
▁הטבות	-5149
▁ייכנס	-5150
▁העונש	-5151
נחו	-5152
סמו	-5153
טאות	-5154
▁אסון	-5155
▁טופורובסקי	-5156
▁בטר	-5157
וונות	-5158
▁רשאי	-5159
▁הדור	-5160
▁המחנה	-5161
▁ובני	-5162
▁חוות	-5163
▁סיכוי	-5164
תיר	-5165
▁הלוואי	-5166
▁מציעה	-5167
טלים	-5168
▁ממי	-5169
▁התנאים	-5170
▁מתווה	-5171
▁טרם	-5172
▁השולחן	-5173
כרים	-5174
▁להשמ	-5175
▁מעני	-5176
▁הקב	-5177
▁חשש	-5178
דויות	-5179
▁בשקט	-5180
▁הנוס	-5181
▁המשנה	-5182
וסו	-5183
יינת	-5184
▁שיב	-5185
▁מצביע	-5186
▁המרכזית	-5187
▁בטוחה	-5188
▁נוער	-5189
▁במטרה	-5190
פוס	-5191
▁אצלי	-5192
▁התיק	-5193
▁אסיים	-5194
וראות	-5195
▁השפה	-5196
טיא	-5197
▁הפרטי	-5198
▁תקדים	-5199
▁רשימת	-5200
▁עלו	-5201
▁עמיר	-5202
▁תקבל	-5203
▁בדיקה	-5204
לוביץ	-5205
▁הראשונים	-5206
חתם	-5207
▁רפואי	-5208
▁הראשית	-5209
▁שחשוב	-5210
ועלת	-5211
▁העו	-5212
▁שהתק	-5213
▁להחליף	-5214
לחם	-5215
תייע	-5216
▁בחר	-5217
▁התפר	-5218
טית	-5219
בוטינסקי	-5220
▁למקומות	-5221
▁חוקית	-5222
▁c	-5223
▁תחרות	-5224
▁קיימים	-5225
▁זיכרונו	-5226
▁להיר	-5227
תירה	-5228
▁מגן	-5229
צינות	-5230
▁לספק	-5231
▁החובה	-5232
נטישמיות	-5233
רן	-5234
▁נתון	-5235
כבדת	-5236
▁שבג	-5237
▁העבירה	-5238
▁ואכן	-5239
▁מכוח	-5240
▁גדולות	-5241
דמן	-5242
פנו	-5243
▁מפרי	-5244
▁כותב	-5245
▁אולם	-5246
▁המפלגות	-5247
▁באתי	-5248
▁לפרק	-5249
▁ההסת	-5250
▁המילה	-5251
▁חברתיים	-5252
רכב	-5253
▁הנדר	-5254
▁שישי	-5255
▁רביעי	-5256
▁למניעת	-5257
▁אילת	-5258
▁קובעת	-5259
▁לתקציב	-5260
▁חלקי	-5261
▁לנסוע	-5262
▁שומר	-5263
▁שפיר	-5264
▁העדיפויות	-5265
▁בהג	-5266
▁המלך	-5267
▁עוול	-5268
▁מיוחדים	-5269
ימי	-5270
▁הרכבת	-5271
▁בתהליך	-5272
▁שהדברים	-5273
▁דעתו	-5274
▁לעוד	-5275
▁נתחיל	-5276
▁להפעיל	-5277
▁שבסופו	-5278
פח	-5279
▁שימו	-5280
בישים	-5281
▁מוחמד	-5282
טורים	-5283
▁בנס	-5284
▁משמ	-5285
▁חיפה	-5286
▁לדוכן	-5287
▁ברחובות	-5288
הם	-5289
ייצ	-5290
▁מרדכי	-5291
er	-5292
זכר	-5293
▁הערכים	-5294
▁לכבד	-5295
▁מעלים	-5296
▁השירותים	-5297
גיף	-5298
יתו	-5299
▁הוראה	-5300
▁שמדבר	-5301
סייע	-5302
▁הכרה	-5303
▁המסים	-5304
▁בהתחלה	-5305
▁חזרה	-5306
500	-5307
פלל	-5308
פעל	-5309
▁תב	-5310
▁חנו	-5311
▁יגידו	-5312
מידי	-5313
▁בונים	-5314
קל	-5315
ורית	-5316
▁להשאיר	-5317
כלת	-5318
▁שיס	-5319
▁כמות	-5320
▁לאוכלוסייה	-5321
▁2,	-5322
▁לשי	-5323
▁בשלטון	-5324
למה	-5325
זורים	-5326
▁הקרוב	-5327
▁באוכלוסייה	-5328
זית	-5329
פיו	-5330
▁הצביעו	-5331
▁בביטחון	-5332
▁ונע	-5333
קס	-5334
▁אורון	-5335
עיני	-5336
תת	-5337
חינת	-5338
רקעי	-5339
▁בבר	-5340
▁ערא	-5341
▁גרוע	-5342
▁לצבא	-5343
וחל	-5344
▁והנ	-5345
▁פיק	-5346
▁תאמין	-5347
▁ביניים	-5348
▁טאה	-5349
▁אט	-5350
▁נכנסים	-5351
▁יחול	-5352
▁המציעים	-5353
▁22	-5354
ואיים	-5355
▁הגישה	-5356
▁במוע	-5357
▁המחוק	-5358
▁ששם	-5359
▁המוד	-5360
▁וחשוב	-5361
▁יגיד	-5362
▁שופט	-5363
▁שייך	-5364
▁היג	-5365
▁טאהא	-5366
▁רגל	-5367
▁האיז	-5368
▁הרצל	-5369
▁תסתכל	-5370
▁החשובה	-5371
▁עי	-5372
▁בפי	-5373
לונות	-5374
▁מהיר	-5375
▁פרסום	-5376
ולדות	-5377
▁להתקיים	-5378
▁מקומיות	-5379
▁חוקה	-5380
▁רופא	-5381
▁הנורא	-5382
▁התמיכה	-5383
▁להדגיש	-5384
לוא	-5385
▁אוצר	-5386
▁כואב	-5387
▁מפעל	-5388
▁דתיים	-5389
▁מהממשלה	-5390
▁סגלוביץ	-5391
▁לזכויות	-5392
▁s	-5393
וצי	-5394
▁וחי	-5395
▁עיו	-5396
▁שכול	-5397
▁ניהול	-5398
▁דורש	-5399
▁באירופה	-5400
▁ישיבות	-5401
▁הגיש	-5402
בורים	-5403
דירים	-5404
▁אעשה	-5405
▁מצטט	-5406
▁גורמי	-5407
▁ובעצם	-5408
▁th	-5409
▁שהיתה	-5410
▁דן	-5411
משמע	-5412
▁יובל	-5413
▁כוללת	-5414
▁בדיונים	-5415
▁בחיי	-5416
▁מוסד	-5417
▁לרח	-5418
▁ילין	-5419
▁שאחרי	-5420
▁האג	-5421
▁גיוס	-5422
▁מזכירת	-5423
▁צפ	-5424
▁להמשך	-5425
▁הוב	-5426
▁ברחוב	-5427
▁סובה	-5428
זוב	-5429
▁פוגעים	-5430
כנ	-5431
ירתו	-5432
לילית	-5433
▁וכבר	-5434
▁יביא	-5435
▁הממונה	-5436
וטל	-5437
בארין	-5438
▁וטוב	-5439
▁באחד	-5440
▁לילה	-5441
▁נצטרך	-5442
ופק	-5443
▁איום	-5444
▁כשל	-5445
▁אלכס	-5446
▁לשאת	-5447
▁לגרום	-5448
▁כידוע	-5449
רגיל	-5450
▁תביא	-5451
שנו	-5452
קצוב	-5453
▁ממלכתי	-5454
▁גודל	-5455
▁מאסר	-5456
יימות	-5457
▁שנאה	-5458
▁שואלת	-5459
▁מקצועי	-5460
▁פרלמנט	-5461
מלצות	-5462
▁וביטחון	-5463
▁עוסק	-5464
▁אמורה	-5465
ולל	-5466
▁וכולם	-5467
▁הבתים	-5468
▁משותפת	-5469
▁וכמו	-5470
▁רישיון	-5471
ומק	-5472
▁בתו	-5473
▁שבית	-5474
▁החרדית	-5475
▁בהיסטוריה	-5476
▁שולח	-5477
יינו	-5478
▁ואלה	-5479
טייה	-5480
ורם	-5481
חינה	-5482
▁מסקנות	-5483
ופית	-5484
יטוט	-5485
▁ישיר	-5486
▁נוח	-5487
▁וכאן	-5488
▁להשתתף	-5489
▁2016,	-5490
▁לחינוך	-5491
▁לעצמ	-5492
▁כנוסח	-5493
▁שנאמר	-5494
▁המערבי	-5495
נקצ	-5496
▁מקשיב	-5497
▁בך	-5498
▁הוציא	-5499
▁רעיון	-5500
▁שפוג	-5501
▁תשעה	-5502
דמנויות	-5503
▁האל	-5504
▁זכר	-5505
▁רווחה	-5506
▁מלך	-5507
▁נוגע	-5508
▁ירידה	-5509
▁בחו	-5510
▁מיליונים	-5511
▁בסוגיה	-5512
אריה	-5513
יתונות	-5514
▁הרצון	-5515
▁ונח	-5516
▁זוג	-5517
▁שמכ	-5518
▁הבאות	-5519
▁בדמוקרטיה	-5520
▁לאדם	-5521
▁ופה	-5522
▁יחיא	-5523
▁מימון	-5524
▁ערבית	-5525
▁להקשיב	-5526
▁מחלוקת	-5527
▁הקרובים	-5528
▁אושר	-5529
▁והשר	-5530
▁סדרי	-5531
▁w	-5532
▁שמירה	-5533
ידר	-5534
▁ביל	-5535
וכנות	-5536
▁במספר	-5537
הבית	-5538
▁במשפט	-5539
▁נניח	-5540
▁תומכת	-5541
▁בשיתוף	-5542
בטלה	-5543
▁צודקת	-5544
▁המלצות	-5545
▁שאסור	-5546
▁שמאפשר	-5547
▁מהאופוזיציה	-5548
זכות	-5549
▁הקדוש	-5550
▁לעתים	-5551
▁חאג	-5552
▁שאשא	-5553
▁ההבדל	-5554
▁תעודת	-5555
בילים	-5556
9.	-5557
מלית	-5558
▁אבטלה	-5559
▁בשעות	-5560
▁ויכול	-5561
▁מתמוד	-5562
▁מהו	-5563
▁תיתן	-5564
▁כביכול	-5565
▁להתערב	-5566
▁נשמ	-5567
▁קולות	-5568
▁בחודשים	-5569
פלת	-5570
פן	-5571
▁ממצ	-5572
▁לאחד	-5573
לוונטיים	-5574
▁בוסו	-5575
▁דוגמאות	-5576
ורש	-5577
7.	-5578
▁חמאס	-5579
▁ייצוג	-5580
דמיה	-5581
▁אינטרס	-5582
▁הפני	-5583
▁מושג	-5584
▁אחריה	-5585
ודיות	-5586
▁שחוק	-5587
▁ויבוא	-5588
קבעו	-5589
▁ובלי	-5590
▁מסים	-5591
▁ווליד	-5592
▁הקטנים	-5593
▁התאגיד	-5594
▁מטרה	-5595
דיים	-5596
ייחס	-5597
▁הקפ	-5598
▁ויר	-5599
▁ולמע	-5600
▁מחוז	-5601
כמות	-5602
▁פשע	-5603
▁תיש	-5604
▁טבע	-5605
▁מראה	-5606
0%,	-5607
▁רז	-5608
▁נפר	-5609
▁התקנות	-5610
▁הגירעון	-5611
▁רווח	-5612
▁בור	-5613
▁לצוות	-5614
▁שעשה	-5615
▁פנינה	-5616
▁אירופה	-5617
▁בתא	-5618
▁שהחז	-5619
▁והט	-5620
▁בנובמבר	-5621
▁עת	-5622
▁הלוח	-5623
▁ראויים	-5624
עתו	-5625
מכים	-5626
▁בעם	-5627
▁הסוציא	-5628
פיות	-5629
▁חסרי	-5630
▁ידעתי	-5631
▁משפטית	-5632
▁לשא	-5633
ורוקרטיה	-5634
▁הערים	-5635
▁באלימות	-5636
▁21	-5637
אלית	-5638
▁צוע	-5639
▁עורך	-5640
▁הכה	-5641
▁להתעלם	-5642
▁השו	-5643
▁יונה	-5644
▁קידום	-5645
▁באש	-5646
▁איתמר	-5647
▁האוויר	-5648
▁המנהיג	-5649
▁לכיוון	-5650
▁הוש	-5651
▁למוס	-5652
▁ביוני	-5653
▁הוכח	-5654
▁המשכ	-5655
▁והד	-5656
▁בתנאים	-5657
▁אגבאריה	-5658
נהלת	-5659
▁מוכר	-5660
▁מוסר	-5661
▁ממלכת	-5662
▁מציינים	-5663
▁ראשו	-5664
▁פוליטיקה	-5665
▁מהיום	-5666
▁ברצוני	-5667
▁ואחריה	-5668
▁שהייתי	-5669
לחו	-5670
▁העק	-5671
▁תמנו	-5672
▁פרויקט	-5673
מיא	-5674
▁הלוי	-5675
▁שניות	-5676
▁הבדואים	-5677
▁עניינים	-5678
▁בדק	-5679
▁אוהבים	-5680
▁מנהלים	-5681
טף	-5682
▁וני	-5683
▁בעצמ	-5684
▁למאבק	-5685
▁האישית	-5686
▁הבטחת	-5687
▁לקואליציה	-5688
צרת	-5689
יקולים	-5690
▁עור	-5691
סיכול	-5692
▁כוונה	-5693
▁שכאשר	-5694
▁להקמת	-5695
▁הרש	-5696
▁אדמה	-5697
▁הדלק	-5698
▁יחסי	-5699
▁יבגני	-5700
▁שישראל	-5701
ילוב	-5702
▁שרוב	-5703
משמעית	-5704
▁אזורי	-5705
▁שנכנס	-5706
טרנט	-5707
▁אוס	-5708
▁הגברת	-5709
לתה	-5710
עשרה	-5711
▁לפק	-5712
▁כפיים	-5713
6.	-5714
אגה	-5715
טאס	-5716
טיבה	-5717
▁במאי	-5718
▁חמורה	-5719
▁מוותרת	-5720
ידול	-5721
▁מעדי	-5722
▁לשינוי	-5723
▁הניסיון	-5724
ראל	-5725
▁נאור	-5726
▁2023,	-5727
▁שהו	-5728
▁שמשת	-5729
▁הנגבי	-5730
▁ביניהם	-5731
▁ובראשונה	-5732
▁במחיר	-5733
▁להאמין	-5734
▁כני	-5735
▁מינו	-5736
חייבים	-5737
▁לימור	-5738
▁הפלילי	-5739
▁ארגונים	-5740
▁התייחסות	-5741
▁פלא	-5742
▁וקנין	-5743
הס	-5744
▁דעה	-5745
יכרון	-5746
▁הפרי	-5747
▁העמדה	-5748
▁באנשים	-5749
ראיתי	-5750
▁לערבים	-5751
▁לאישור	-5752
▁לביטוח	-5753
▁מתא	-5754
ואציה	-5755
▁שאמור	-5756
▁תאגיד	-5757
יבו	-5758
יוב	-5759
▁מידה	-5760
▁מלב	-5761
▁גטאס	-5762
▁ממלא	-5763
▁גופים	-5764
▁מרגישים	-5765
▁31	-5766
▁פתח	-5767
▁שבאים	-5768
▁תוקף	-5769
▁טבעי	-5770
▁משנת	-5771
▁החשובים	-5772
מיה	-5773
פרט	-5774
וטבול	-5775
-12	-5776
אני	-5777
▁דתי	-5778
▁ותע	-5779
ותרות	-5780
▁מתאי	-5781
▁מוכנה	-5782
▁הערביות	-5783
ידן	-5784
גידי	-5785
צבע	-5786
▁הספ	-5787
אית	-5788
▁נחש	-5789
▁לציון	-5790
▁פרופסור	-5791
▁לנה	-5792
▁כיושב	-5793
▁מיידי	-5794
▁במשטרה	-5795
▁האזרחי	-5796
▁ערכ	-5797
ירותים	-5798
▁פרטיים	-5799
תיע	-5800
▁במובן	-5801
▁בעלות	-5802
▁החודש	-5803
▁גדי	-5804
▁הנשק	-5805
▁אזרחיה	-5806
▁יומיים	-5807
▁תקציבית	-5808
▁היגיון	-5809
▁תם	-5810
▁בהצלחה	-5811
▁אבוטבול	-5812
▁מזו	-5813
▁מחפ	-5814
▁סוגיה	-5815
▁אוכלוסיות	-5816
▁שאמרו	-5817
▁האסלא	-5818
▁הגיוס	-5819
▁עמדות	-5820
▁מקרקעי	-5821
▁שפה	-5822
פונים	-5823
▁דובר	-5824
▁משפטים	-5825
▁ברשויות	-5826
▁פחד	-5827
גלית	-5828
▁אבות	-5829
▁סגנית	-5830
▁ולב	-5831
▁כבד	-5832
▁מכול	-5833
▁המקרים	-5834
רוח	-5835
▁עראר	-5836
ברך	-5837
▁לדרך	-5838
▁בממשלת	-5839
▁הבנה	-5840
ביות	-5841
▁יקרים	-5842
פילה	-5843
ופולי	-5844
▁בימי	-5845
▁כהצעת	-5846
▁o	-5847
▁ההסתה	-5848
▁לזכות	-5849
▁אול	-5850
ועלים	-5851
▁קרו	-5852
▁הצליח	-5853
▁להיאבק	-5854
אדה	-5855
▁הבנק	-5856
▁ברית	-5857
▁אמצעי	-5858
▁תחושה	-5859
▁חור	-5860
▁לשכת	-5861
גתי	-5862
למות	-5863
▁שאכן	-5864
▁תעבור	-5865
▁הדרוזית	-5866
▁מפקד	-5867
▁לחץ	-5868
▁הולם	-5869
▁עמי	-5870
▁בכביש	-5871
▁מהציבור	-5872
חייבות	-5873
▁הדיבור	-5874
כית	-5875
▁זהות	-5876
▁בתע	-5877
▁ישת	-5878
▁והשי	-5879
▁שהוצ	-5880
▁מייצג	-5881
▁למלא	-5882
דיש	-5883
▁פרידמן	-5884
▁מסוגלים	-5885
▁והבנייה	-5886
מתין	-5887
▁תשל	-5888
▁הספורט	-5889
▁נט	-5890
יינה	-5891
▁לחת	-5892
▁מעו	-5893
▁ולצערי	-5894
ננו	-5895
▁שתק	-5896
▁בנוגע	-5897
-30	-5898
▁השוק	-5899
▁ושא	-5900
שוואה	-5901
▁מציג	-5902
▁בשטחים	-5903
דולה	-5904
▁ביקשו	-5905
▁חו	-5906
▁איח	-5907
▁עידן	-5908
▁חוג	-5909
פטמבר	-5910
▁אחורה	-5911
▁דחופה	-5912
▁מוצאים	-5913
▁התשתיות	-5914
▁ובסוף	-5915
▁ואנשים	-5916
▁מנהיגות	-5917
▁פתוח	-5918
▁שורה	-5919
▁מאליו	-5920
▁בדצמבר	-5921
▁התוכניות	-5922
▁הסיע	-5923
▁נפגע	-5924
▁משותף	-5925
אש	-5926
ולן	-5927
▁נעמה	-5928
▁בשלום	-5929
▁המתק	-5930
▁כגון	-5931
▁לזימי	-5932
▁עובדה	-5933
▁היחסים	-5934
פתחו	-5935
רבעה	-5936
▁בספר	-5937
▁מוסיף	-5938
▁צמיחה	-5939
לחץ	-5940
לטים	-5941
▁רגיל	-5942
▁70	-5943
▁הלק	-5944
▁ובזה	-5945
▁בשנות	-5946
▁אירועים	-5947
ידוד	-5948
ומש	-5949
▁מיות	-5950
▁מתו	-5951
▁תיר	-5952
▁ונות	-5953
▁סיבות	-5954
▁מאוח	-5955
▁2017,	-5956
▁מהסוג	-5957
הוראת	-5958
▁בנות	-5959
▁בהסכמה	-5960
▁מחויבים	-5961
▁המר	-5962
שובות	-5963
▁הצביע	-5964
▁תשובת	-5965
▁לשוויון	-5966
יסטים	-5967
▁'	-5968
▁נביא	-5969
▁עונש	-5970
▁סיכום	-5971
▁המקרה	-5972
▁מהב	-5973
▁הבנקים	-5974
▁עליכם	-5975
▁לפיתוח	-5976
▁עין	-5977
▁לנצח	-5978
▁פניות	-5979
▁שהולך	-5980
▁ארוכות	-5981
דום	-5982
▁לכמה	-5983
▁מאמינה	-5984
▁הסמכויות	-5985
▁איל	-5986
▁גוט	-5987
▁שתע	-5988
▁ברקו	-5989
▁מהדברים	-5990
מנית	-5991
▁שהשת	-5992
▁מצרים	-5993
ולדת	-5994
▁שולי	-5995
לוונטי	-5996
▁להחיל	-5997
▁מתכבדת	-5998
▁ומצד	-5999
▁ראובן	-6000
זן	-6001
▁שבין	-6002
▁מבטיח	-6003
▁דגל	-6004
▁ההון	-6005
וקי	-6006
▁והרבה	-6007
▁יצטרכו	-6008
נחת	-6009
▁והר	-6010
▁2010,	-6011
▁החמאס	-6012
▁משוחר	-6013
▁הוצאות	-6014
▁להתג	-6015
▁מאחל	-6016
▁קונס	-6017
▁לאותה	-6018
▁שווים	-6019
▁המוג	-6020
▁צריכות	-6021
▁ודמוקרטית	-6022
שראי	-6023
▁בהר	-6024
▁קצבאות	-6025
▁מבחינתי	-6026
▁המזון	-6027
▁לסיכום	-6028
▁אחים	-6029
▁הביאו	-6030
▁מוביל	-6031
▁המספרים	-6032
שתיות	-6033
▁ישנה	-6034
▁בקרוב	-6035
▁הגשתי	-6036
▁צחי	-6037
▁לצה	-6038
וטובלי	-6039
▁לאיזה	-6040
▁עלול	-6041
▁ביולי	-6042
▁האמיתית	-6043
▁הלש	-6044
▁שהוק	-6045
▁יאסין	-6046
▁מחסור	-6047
▁היסטורי	-6048
ברט	-6049
ימו	-6050
יינתי	-6051
פנים	-6052
▁וכדי	-6053
is	-6054
ילי	-6055
▁באל	-6056
▁יקר	-6057
▁שואה	-6058
▁אושרה	-6059
▁ההק	-6060
▁מתאר	-6061
▁שהוג	-6062
▁משאבים	-6063
▁תפקידו	-6064
▁הרופאים	-6065
נוער	-6066
▁הגנת	-6067
ליכוד	-6068
▁ששמ	-6069
▁כראש	-6070
▁מסתבר	-6071
▁משחק	-6072
▁הדירה	-6073
▁מסכימה	-6074
▁דאז	-6075
▁חוטובלי	-6076
קוראת	-6077
▁כהו	-6078
▁הונחו	-6079
▁שוסטר	-6080
▁לכול	-6081
▁דנון	-6082
▁והספורט	-6083
▁טענות	-6084
▁קרקעות	-6085
:00,	-6086
▁הסיעה	-6087
▁העברית	-6088
גענו	-6089
▁לזר	-6090
▁פז	-6091
▁הצדק	-6092
תע	-6093
▁יוראי	-6094
▁נקודת	-6095
▁שחאדה	-6096
▁החירום	-6097
ישום	-6098
▁אישר	-6099
▁ובטח	-6100
▁מבני	-6101
▁שאותו	-6102
▁לגיטימי	-6103
▁סוד	-6104
▁הממלכתי	-6105
▁לחיילים	-6106
-15	-6107
▁לאה	-6108
▁נעים	-6109
▁שמגיעים	-6110
פרק	-6111
▁ילך	-6112
▁מתב	-6113
▁אליכם	-6114
▁להבהיר	-6115
▁לתקופה	-6116
▁לראשונה	-6117
▁ובסופו	-6118
▁להסכים	-6119
▁ההתנהלות	-6120
▁הערב	-6121
▁אינט	-6122
▁מגד	-6123
ופל	-6124
▁בתאונות	-6125
ועי	-6126
▁מוקדם	-6127
▁עמדתי	-6128
▁ייעשה	-6129
▁לשתף	-6130
▁נאבק	-6131
▁הכביש	-6132
▁ישבתי	-6133
▁מצטרף	-6134
▁וחברים	-6135
▁רצינית	-6136
▁שאפילו	-6137
כרה	-6138
גדים	-6139
▁יתק	-6140
▁לשום	-6141
▁ברושי	-6142
▁הגבול	-6143
▁אוני	-6144
▁מטרת	-6145
▁הגבוהה	-6146
▁הביקורת	-6147
▁ציבוריים	-6148
▁מיליארדים	-6149
▁23	-6150
▁מכו	-6151
▁ברזל	-6152
▁חלוקת	-6153
▁תקשיבו	-6154
דמי	-6155
ליטו	-6156
▁מהווה	-6157
▁ולפי	-6158
▁מביאה	-6159
▁מעוני	-6160
▁זכאים	-6161
▁לנוכח	-6162
▁לקחו	-6163
▁תפיסת	-6164
▁התב	-6165
▁וכשא	-6166
▁פורסם	-6167
▁ביישוב	-6168
▁גוטליב	-6169
▁ולראות	-6170
▁ממלכתית	-6171
▁לפרט	-6172
▁בעצמו	-6173
כלול	-6174
נתקות	-6175
פלסטי	-6176
ולציה	-6177
יגיון	-6178
גלי	-6179
▁הרצנו	-6180
▁אליעזר	-6181
▁התוצאות	-6182
ברואר	-6183
▁שכך	-6184
▁שקש	-6185
▁שרה	-6186
▁ממלי	-6187
▁עזרה	-6188
▁יוצאת	-6189
יבטים	-6190
▁כרטי	-6191
▁אימאן	-6192
▁הגליל	-6193
כלי	-6194
▁מסוגל	-6195
▁הגדולות	-6196
▁לעק	-6197
▁המועצות	-6198
ימים	-6199
פתאום	-6200
▁ימשיך	-6201
▁אתייחס	-6202
▁ואומרת	-6203
▁השוטרים	-6204
כימו	-6205
משכת	-6206
▁שער	-6207
▁שקיים	-6208
כני	-6209
▁הפיצ	-6210
▁העמים	-6211
▁החשיבות	-6212
▁לאו	-6213
שואים	-6214
▁וכאשר	-6215
▁מזכ	-6216
▁שיכולים	-6217
▁מורים	-6218
▁להפג	-6219
▁עליי	-6220
יבורים	-6221
▁0	-6222
▁בקול	-6223
▁פועלת	-6224
▁למישהו	-6225
רגוני	-6226
▁אספר	-6227
▁ולהצ	-6228
▁הזמנים	-6229
▁יוג	-6230
▁דולר	-6231
▁עלות	-6232
";	-6233
מכו	-6234
רבנות	-6235
▁2015,	-6236
וון	-6237
▁לחר	-6238
▁שעת	-6239
קירות	-6240
▁מתנגדת	-6241
▁קריאות	-6242
קע	-6243
▁פניתי	-6244
▁האינטרס	-6245
מהות	-6246
▁הלכו	-6247
▁כמוך	-6248
▁שירי	-6249
ביד	-6250
נגדות	-6251
▁דנים	-6252
▁ולהביא	-6253
מנת	-6254
▁b	-6255
▁בנא	-6256
▁שבאה	-6257
▁לגייס	-6258
▁מסביב	-6259
▁המילים	-6260
פייה	-6261
▁נוה	-6262
▁יחסית	-6263
▁הסיעות	-6264
▁התעשייה	-6265
▁חסי	-6266
לאומיים	-6267
ועת	-6268
▁בשכר	-6269
▁האופ	-6270
▁מיסים	-6271
בחר	-6272
▁בשב	-6273
▁מעוד	-6274
▁והינה	-6275
▁ידיים	-6276
▁ייקח	-6277
▁סמוך	-6278
▁בדברי	-6279
▁מיותר	-6280
▁במשפחה	-6281
▁ויס	-6282
▁לילד	-6283
▁לרדת	-6284
▁שיטת	-6285
▁הקואליציוניים	-6286
0%.	-6287
ארו	-6288
▁הים	-6289
▁מטור	-6290
▁תהיו	-6291
▁אסירים	-6292
▁תיקונים	-6293
ליטת	-6294
▁הנפ	-6295
▁העיקרון	-6296
טטי	-6297
מיני	-6298
ניהול	-6299
▁תחילת	-6300
נצח	-6301
▁ממע	-6302
▁עפר	-6303
▁השות	-6304
▁לרכוש	-6305
▁הראשי	-6306
▁נהרגו	-6307
לקה	-6308
▁העבר	-6309
▁משרדים	-6310
▁והשלישית	-6311
▁לחכות	-6312
▁תיקים	-6313
▁הממוצע	-6314
דנו	-6315
פיא	-6316
▁הערה	-6317
▁סעיד	-6318
▁עצום	-6319
חקר	-6320
יומה	-6321
סקנה	-6322
▁ייא	-6323
▁וולדי	-6324
▁ריבלין	-6325
▁מתכוונים	-6326
▁כשזה	-6327
▁מועצה	-6328
▁שעליו	-6329
▁מאפשרים	-6330
▁אלאלוף	-6331
▁שעשינו	-6332
▁בבני	-6333
תיקוני	-6334
▁לוודא	-6335
▁וכולנו	-6336
שנות	-6337
▁האב	-6338
▁סוכ	-6339
▁רחל	-6340
▁חומר	-6341
▁האשראי	-6342
-202	-6343
▁בכלא	-6344
▁2014,	-6345
▁רבנים	-6346
▁תלונות	-6347
▁מנות	-6348
▁לדיור	-6349
▁החדשים	-6350
ירוף	-6351
▁הממשל	-6352
▁הקיימת	-6353
ינית	-6354
▁בתחבורה	-6355
טיבית	-6356
▁הקרן	-6357
▁נועד	-6358
וויזיה	-6359
▁חובות	-6360
▁לימודי	-6361
▁ענייני	-6362
▁עסקה	-6363
ובדי	-6364
▁שגר	-6365
▁בערב	-6366
▁איראן	-6367
▁יגיעו	-6368
▁משתמשים	-6369
זכרו	-6370
טטוס	-6371
▁חזון	-6372
שיות	-6373
▁הוכ	-6374
▁למכור	-6375
▁התמונה	-6376
▁סת	-6377
וחרים	-6378
▁להעמיד	-6379
▁לחפש	-6380
▁לרעה	-6381
שיים	-6382
שרתים	-6383
▁התעל	-6384
▁הודעת	-6385
▁מטפלים	-6386
▁ברצינות	-6387
▁חינו	-6388
▁הנכונה	-6389
▁וולדיגר	-6390
at	-6391
זות	-6392
▁ההש	-6393
▁שבאו	-6394
▁אוטוב	-6395
▁ולדבר	-6396
▁תנועת	-6397
▁להתקדם	-6398
▁m	-6399
▁ערכי	-6400
▁מיה	-6401
▁חפ	-6402
▁למא	-6403
בונות	-6404
▁לאופוזיציה	-6405
סטים	-6406
▁רוזנטל	-6407
▁בקור	-6408
▁חופשי	-6409
▁לנכון	-6410
גיטימציה	-6411
▁ובמיוחד	-6412
פגנות	-6413
▁בריא	-6414
▁עניים	-6415
▁שיקום	-6416
▁המורים	-6417
▁קמה	-6418
▁השטח	-6419
יומים	-6420
▁הבקשה	-6421
▁האור	-6422
▁כחול	-6423
▁שפור	-6424
▁לעובדים	-6425
▁האדמה	-6426
▁לשאלה	-6427
▁דמוקרטי	-6428
שקעה	-6429
▁בשתי	-6430
▁קשישים	-6431
▁תלמיד	-6432
▁ענת	-6433
מוג	-6434
משו	-6435
▁בחי	-6436
▁השכ	-6437
▁ומב	-6438
▁ובכך	-6439
▁עוברת	-6440
▁הגוף	-6441
▁להפך	-6442
▁הצרכים	-6443
▁בשנתיים	-6444
▁ותק	-6445
▁גישה	-6446
▁היקר	-6447
▁תגיע	-6448
▁שחרור	-6449
▁להתווכח	-6450
מטי	-6451
▁2018,	-6452
▁לעצמם	-6453
).	-6454
▁נוסח	-6455
▁בטיחות	-6456
▁ייפ	-6457
▁בעבור	-6458
▁מהמקום	-6459
▁שיאפשר	-6460
▁אלקט	-6461
▁ולדי	-6462
▁הזהות	-6463
▁היקף	-6464
▁שאדם	-6465
▁לאדוני	-6466
▁למשפחה	-6467
למיד	-6468
מוצע	-6469
▁שאומרת	-6470
וזים	-6471
▁שפע	-6472
▁הפער	-6473
▁הכנסות	-6474
▁וכדומה	-6475
▁תעשייה	-6476
הים	-6477
▁4.	-6478
▁וחר	-6479
▁עצמך	-6480
▁מתבייש	-6481
▁סבל	-6482
▁למגזר	-6483
▁הצליחו	-6484
▁העשרים	-6485
▁מוגבלויות	-6486
▁קצרה	-6487
▁מועלם	-6488
פרו	-6489
▁תשע	-6490
▁לעיר	-6491
▁סיפר	-6492
▁ישראלית	-6493
הש	-6494
גרו	-6495
סוי	-6496
ליחה	-6497
פגעים	-6498
שקלון	-6499
▁התרג	-6500
▁ישיבת	-6501
עור	-6502
▁אזרחית	-6503
טן	-6504
כתם	-6505
▁להשכלה	-6506
יונ	-6507
ריה	-6508
ביבת	-6509
▁אוי	-6510
▁השתת	-6511
▁הרבנים	-6512
ומדת	-6513
▁בליאק	-6514
▁הרמטכ	-6515
▁אישרה	-6516
▁בשלוש	-6517
▁העובד	-6518
▁לתושבי	-6519
▁הבינוי	-6520
▁1,000	-6521
▁למרכז	-6522
▁אענה	-6523
▁מחאה	-6524
▁לחודש	-6525
יכוי	-6526
▁המד	-6527
▁לקצ	-6528
▁תקנים	-6529
▁מעשי	-6530
▁שדווקא	-6531
▁תדבר	-6532
▁מרגלית	-6533
לחת	-6534
▁יכ	-6535
▁ברורים	-6536
▁להחזיק	-6537
אתה	-6538
▁להראות	-6539
פוף	-6540
▁ורבין	-6541
▁אסטרטג	-6542
▁ברשותכם	-6543
▁העירייה	-6544
לג	-6545
סאנע	-6546
▁חמישי	-6547
ישת	-6548
▁רכ	-6549
▁לדר	-6550
▁שנס	-6551
▁בתנאי	-6552
▁ממקום	-6553
▁היועצת	-6554
▁ההסתדרות	-6555
▁לשחרר	-6556
▁להורים	-6557
▁במקצוע	-6558
▁שעובדים	-6559
▁במילואים	-6560
▁החופ	-6561
▁לממן	-6562
▁מאפשרת	-6563
re	-6564
געת	-6565
נישה	-6566
▁ישבו	-6567
▁מנדטים	-6568
▁סח	-6569
וראה	-6570
▁הבכ	-6571
▁הנש	-6572
▁שנצ	-6573
▁גבוהים	-6574
▁בתולדות	-6575
▁משיב	-6576
▁שמתק	-6577
▁שהר	-6578
▁שנש	-6579
מסגרת	-6580
▁דויד	-6581
▁בהזדמנות	-6582
ועבר	-6583
יעוץ	-6584
▁הרגע	-6585
▁אוויר	-6586
▁להגיב	-6587
▁מינוי	-6588
▁בטיפול	-6589
▁התעופה	-6590
סמים	-6591
▁אדמות	-6592
▁ההפר	-6593
▁וכשה	-6594
▁מבחן	-6595
▁נגדו	-6596
▁כשהיא	-6597
▁ספורט	-6598
▁בעיתון	-6599
▁עיניים	-6600
וזן	-6601
▁ואיפה	-6602
▁שהכול	-6603
▁אשת	-6604
ידיאול	-6605
▁בפנינו	-6606
▁העד	-6607
▁הפי	-6608
▁המספר	-6609
▁שליטה	-6610
▁מקומית	-6611
ובדות	-6612
▁מאלה	-6613
▁שמעת	-6614
▁שלב	-6615
▁ההודעה	-6616
פלה	-6617
▁ממס	-6618
▁בשבועות	-6619
אנו	-6620
ליכי	-6621
▁התה	-6622
▁שעם	-6623
▁ברכות	-6624
▁אלסאנע	-6625
▁לדורות	-6626
▁התנהלות	-6627
▁נלך	-6628
▁מעוניין	-6629
▁ולשמ	-6630
▁שמבי	-6631
▁הטובים	-6632
▁האירופי	-6633
מצאים	-6634
▁מחכים	-6635
זול	-6636
▁בכתב	-6637
חקים	-6638
▁שפר	-6639
▁מתנצל	-6640
▁בכירים	-6641
▁עיתונאים	-6642
נסו	-6643
רגל	-6644
פלות	-6645
▁2011,	-6646
▁מהמדינה	-6647
▁התחת	-6648
▁דניאל	-6649
▁ממילא	-6650
▁הלימוד	-6651
▁לפתרון	-6652
פגנה	-6653
▁המסר	-6654
▁הסוף	-6655
▁הבינו	-6656
▁הדתות	-6657
▁נכבדים	-6658
▁ובס	-6659
▁באנו	-6660
▁ניקח	-6661
▁סויד	-6662
▁בחזרה	-6663
▁כולכם	-6664
▁קיצוץ	-6665
▁לימודים	-6666
▁ובכ	-6667
▁תוצאה	-6668
▁נלחמים	-6669
▁הרס	-6670
בדת	-6671
טלי	-6672
▁בגליל	-6673
▁סיכון	-6674
▁אחראית	-6675
▁לחברות	-6676
▁השופטים	-6677
▁למזכירת	-6678
▁בנת	-6679
▁צרצ	-6680
▁רשמ	-6681
▁קצבת	-6682
▁משרת	-6683
▁תדאג	-6684
▁המונח	-6685
▁רשימה	-6686
▁שיפור	-6687
▁שהחזירה	-6688
מרה	-6689
▁יאפשר	-6690
▁אוריאל	-6691
אחד	-6692
▁מורשת	-6693
ומטי	-6694
▁נער	-6695
▁הסכום	-6696
▁נועדה	-6697
▁בשיעור	-6698
▁לחיי	-6699
▁בהליך	-6700
▁למציאות	-6701
מיאס	-6702
▁בהיקף	-6703
▁הטענה	-6704
נתם	-6705
▁אחזור	-6706
▁השיטה	-6707
קטור	-6708
▁פתיחת	-6709
▁לתוכנית	-6710
סורד	-6711
לוי	-6712
יזשהו	-6713
▁סובל	-6714
נהגה	-6715
אור	-6716
רצית	-6717
▁בישיבה	-6718
יצב	-6719
▁קם	-6720
▁סיר	-6721
▁מורכב	-6722
▁הסרט	-6723
▁מאותו	-6724
▁נחמיאס	-6725
פטר	-6726
▁אבן	-6727
▁דמו	-6728
▁מזע	-6729
▁וככה	-6730
▁קראו	-6731
▁בנאום	-6732
▁לוחמים	-6733
בעת	-6734
וקד	-6735
יקול	-6736
▁וחס	-6737
▁הכות	-6738
▁חוזרת	-6739
▁נצליח	-6740
▁תנועה	-6741
▁המפור	-6742
▁לעתיד	-6743
▁חיליק	-6744
▁לאכול	-6745
▁האינטרסים	-6746
ונן	-6747
טיף	-6748
▁עמים	-6749
ננות	-6750
▁צרצור	-6751
▁רגילה	-6752
▁דוידסון	-6753
פיל	-6754
▁רשת	-6755
▁ביקשה	-6756
▁שחושב	-6757
▁הכניסה	-6758
יתיות	-6759
▁אינן	-6760
▁הפכה	-6761
▁לשלב	-6762
▁ובצדק	-6763
ננה	-6764
ייסים	-6765
פכה	-6766
▁התנ	-6767
▁נתי	-6768
▁באסל	-6769
▁תתבייש	-6770
▁הפרקליטות	-6771
▁ושמ	-6772
▁תתק	-6773
▁עקרונות	-6774
▁לאט	-6775
▁פרשת	-6776
▁החליטו	-6777
▁הרחב	-6778
▁לרוב	-6779
▁האבטלה	-6780
איג	-6781
▁אמן	-6782
▁דחי	-6783
▁חכים	-6784
▁עוזר	-6785
מרט	-6786
עזה	-6787
▁הערכה	-6788
▁לגופו	-6789
on	-6790
כלל	-6791
ריקה	-6792
▁דיס	-6793
▁בקשת	-6794
▁לעצמנו	-6795
▁לבריאות	-6796
▁לנגד	-6797
▁מורה	-6798
▁מחקר	-6799
▁ולהיות	-6800
▁פרטיות	-6801
▁בענייני	-6802
זיות	-6803
▁קלה	-6804
וטנצי	-6805
▁עצמא	-6806
ומס	-6807
מרים	-6808
▁רעה	-6809
▁משטר	-6810
▁הוקמה	-6811
רפת	-6812
▁כדור	-6813
▁הדרום	-6814
▁להסדר	-6815
זת	-6816
▁הנכים	-6817
▁הסכסוך	-6818
והה	-6819
▁מזר	-6820
▁החסי	-6821
▁והחוק	-6822
▁ולפעמים	-6823
▁אכיפת	-6824
▁הטובה	-6825
▁תרופות	-6826
▁דואג	-6827
▁חיזוק	-6828
▁ידענו	-6829
▁במג	-6830
▁מהג	-6831
▁הכפר	-6832
▁הפכו	-6833
▁עלתה	-6834
קלאות	-6835
▁נבחרי	-6836
▁חיה	-6837
▁הגעתי	-6838
▁בלא	-6839
▁מונ	-6840
▁2012,	-6841
▁קוש	-6842
▁ההיש	-6843
▁מנהלת	-6844
▁שעולה	-6845
▁הקליטה	-6846
וצמה	-6847
וסיית	-6848
▁הנזק	-6849
▁יישר	-6850
▁כאחד	-6851
▁מוסרי	-6852
▁התחרות	-6853
פאר	-6854
▁אפרת	-6855
▁בניס	-6856
וטובוס	-6857
▁שקיפות	-6858
ספי	-6859
צבת	-6860
▁אורלב	-6861
▁המהות	-6862
▁כבודו	-6863
▁משפחתו	-6864
▁מסוימות	-6865
▁ותיק	-6866
▁מסלול	-6867
▁צמצום	-6868
▁היעדר	-6869
▁העולים	-6870
▁סיפורים	-6871
טרפו	-6872
מרכז	-6873
▁שהופ	-6874
נקציות	-6875
▁התחילה	-6876
▁שחס	-6877
▁משוכ	-6878
▁כיבוש	-6879
▁השפעה	-6880
▁נתוני	-6881
▁שאותם	-6882
▁זקוקים	-6883
▁במהירות	-6884
ואלים	-6885
▁מסיבות	-6886
יוקר	-6887
▁50%	-6888
▁רוברט	-6889
▁קורונה	-6890
▁המיוחדת	-6891
צעו	-6892
זציה	-6893
יעון	-6894
▁מכה	-6895
וקחים	-6896
▁העורף	-6897
▁בכיוון	-6898
▁משרתים	-6899
▁45	-6900
▁300	-6901
שלכות	-6902
▁לפנינו	-6903
גלה	-6904
הסוהר	-6905
▁רוי	-6906
▁הגיל	-6907
▁בכלכלה	-6908
▁שחר	-6909
▁המציע	-6910
▁אזרחות	-6911
▁כלכליים	-6912
▁התשס	-6913
▁ישירות	-6914
▁נכונים	-6915
פתור	-6916
▁סופ	-6917
▁קום	-6918
ומכים	-6919
▁קביעת	-6920
▁האמירה	-6921
▁עפו	-6922
▁דיווח	-6923
▁הצרכן	-6924
עצ	-6925
▁הוחלט	-6926
▁יישאר	-6927
▁שיקולים	-6928
ננת	-6929
עילה	-6930
▁the	-6931
▁הגשת	-6932
▁לעבר	-6933
▁הרחבת	-6934
▁לבג	-6935
▁התור	-6936
▁פלילי	-6937
אע	-6938
▁משול	-6939
וטנציאל	-6940
▁דואגים	-6941
▁במעמד	-6942
גרס	-6943
▁הצו	-6944
▁מהמק	-6945
▁ותיקים	-6946
▁הממשלתי	-6947
ומבי	-6948
▁בפתח	-6949
רידה	-6950
▁הבה	-6951
▁העש	-6952
▁בליכוד	-6953
▁הרוגים	-6954
▁להשפיע	-6955
▁ניצולי	-6956
▁פרלמנטרית	-6957
▁ההתנחלויות	-6958
פקים	-6959
▁מצטער	-6960
▁לגלות	-6961
▁שלושת	-6962
▁שהולכים	-6963
▁פלילית	-6964
▁בדוח	-6965
▁לתאר	-6966
▁אמונים	-6967
▁בהצעות	-6968
דיה	-6969
▁אפק	-6970
▁בכם	-6971
▁לקב	-6972
▁נתתי	-6973
▁רויטל	-6974
▁מוחלטת	-6975
▁הזר	-6976
בריין	-6977
▁במרחב	-6978
▁כניסת	-6979
ילוט	-6980
▁במלוא	-6981
▁המאוד	-6982
▁כחברה	-6983
▁לדרוש	-6984
▁לשלטון	-6985
בלבל	-6986
▁דורשים	-6987
▁לדמוקרטיה	-6988
סקו	-6989
▁חולה	-6990
▁הקשים	-6991
▁התחילו	-6992
▁לגבות	-6993
▁שההצעה	-6994
▁שהיינו	-6995
▁האנרגיה	-6996
▁טעם	-6997
▁ניה	-6998
דיקות	-6999
▁מסגרת	-7000
▁נעביר	-7001
ניר	-7002
▁שור	-7003
▁2020,	-7004
▁בבריאות	-7005
ריסה	-7006
▁תמונה	-7007
▁לכת	-7008
▁תואר	-7009
▁2013,	-7010
▁לתרום	-7011
▁הקרובה	-7012
▁מוכרים	-7013
▁מתחילת	-7014
▁הקיימים	-7015
פואה	-7016
רייה	-7017
▁ששי	-7018
▁השקעה	-7019
כרות	-7020
▁המשחק	-7021
▁קשיים	-7022
▁לאל	-7023
רקעין	-7024
▁אדיר	-7025
▁המופ	-7026
▁זמני	-7027
▁שידור	-7028
▁כישלון	-7029
▁ולדימיר	-7030
זמים	-7031
▁הגל	-7032
▁הכותל	-7033
▁בודדים	-7034
▁גמ	-7035
▁שבסוף	-7036
ובא	-7037
▁בהסכם	-7038
ייטן	-7039
▁גליק	-7040
▁וקיב	-7041
▁שעשית	-7042
▁הקרובות	-7043
פעלים	-7044
▁האמון	-7045
▁הגדלת	-7046
▁הליכי	-7047
▁כניסה	-7048
▁ארוכים	-7049
▁ההכנסה	-7050
▁מופיע	-7051
לאות	-7052
▁נולד	-7053
▁נפרד	-7054
▁טלפון	-7055
▁סובלים	-7056
▁אינטרסים	-7057
קיפות	-7058
מעט	-7059
▁לטי	-7060
▁משני	-7061
▁עוק	-7062
▁המוסר	-7063
▁בחור	-7064
▁קבעה	-7065
▁שחיים	-7066
▁נדע	-7067
▁בראשה	-7068
ואימני	-7069
▁משתמש	-7070
▁קופות	-7071
▁בילדים	-7072
▁הנקודה	-7073
▁השלכות	-7074
מיק	-7075
▁35	-7076
לארץ	-7077
▁יוח	-7078
בקשות	-7079
▁דרום	-7080
▁חלקים	-7081
▁ובמקום	-7082
ודעים	-7083
▁עדיף	-7084
ייסבוק	-7085
▁רייטן	-7086
▁משקיעים	-7087
▁שהמשטרה	-7088
▁שעומדים	-7089
▁הכשרה	-7090
▁המוסדות	-7091
▁וכפי	-7092
וייד	-7093
▁באר	-7094
▁גבר	-7095
▁ערי	-7096
כוהול	-7097
מציאות	-7098
▁האזרחית	-7099
דרגה	-7100
נגנון	-7101
▁נפגעי	-7102
▁נמ	-7103
▁ליש	-7104
▁בשמו	-7105
וצץ	-7106
יליון	-7107
▁ולקבל	-7108
▁סוייד	-7109
▁כשמדובר	-7110
יזוק	-7111
▁ואחרות	-7112
▁בנסיבות	-7113
▁רפואה	-7114
תייחסות	-7115
פרה	-7116
▁מכש	-7117
מינים	-7118
▁בסיסי	-7119
▁מחויב	-7120
▁מטה	-7121
▁הנני	-7122
▁קודש	-7123
▁פוגעת	-7124
▁לרע	-7125
לוקות	-7126
פקידו	-7127
▁הצעתי	-7128
▁שילוב	-7129
▁הקריאה	-7130
▁יורד	-7131
▁נדרשים	-7132
▁בתחומים	-7133
שוף	-7134
▁28	-7135
▁טובת	-7136
▁עזוב	-7137
▁שגור	-7138
▁הלכתי	-7139
▁סוגיית	-7140
וציו	-7141
▁בקו	-7142
▁בכסף	-7143
▁מפחדים	-7144
ופלים	-7145
▁הופכים	-7146
▁נציגים	-7147
▁רול	-7148
דירות	-7149
פתרון	-7150
▁חטופים	-7151
לואה	-7152
▁גוש	-7153
▁ההט	-7154
▁שמפ	-7155
נדבים	-7156
▁בנוסח	-7157
▁לנהוג	-7158
▁מירון	-7159
▁רמ	-7160
▁ויח	-7161
▁ייב	-7162
▁האויב	-7163
▁פלי	-7164
▁קיר	-7165
▁ברקת	-7166
▁במשבר	-7167
▁העסקה	-7168
▁במלחמת	-7169
▁התפיסה	-7170
▁עמותות	-7171
▁שמקבלים	-7172
וסן	-7173
ינון	-7174
▁נרש	-7175
▁האיזון	-7176
מתה	-7177
▁רובם	-7178
▁למדתי	-7179
▁מתמודדים	-7180
▁טרא	-7181
▁תמו	-7182
▁הקטן	-7183
▁מבלי	-7184
▁עידוד	-7185
▁שצריכה	-7186
רגן	-7187
רוף	-7188
▁80	-7189
▁טכנול	-7190
▁הכשרות	-7191
הוא	-7192
יבוץ	-7193
▁תיע	-7194
▁הסכמים	-7195
▁מסודרת	-7196
▁נפל	-7197
▁ואחת	-7198
▁מחלה	-7199
בתי	-7200
סטר	-7201
נזוס	-7202
▁והגיע	-7203
▁בבניין	-7204
▁67	-7205
▁נרצחו	-7206
▁תלמידי	-7207
קיה	-7208
נונה	-7209
▁מפס	-7210
טנברג	-7211
▁וללא	-7212
▁נתפס	-7213
▁להעניק	-7214
▁רציפות	-7215
וכמה	-7216
צאים	-7217
וגיים	-7218
▁רשמי	-7219
▁בפעילות	-7220
▁הדמוקרטי	-7221
סקנות	-7222
כתה	-7223
▁כשאתם	-7224
▁קושניר	-7225
▁ונגד	-7226
▁מניעת	-7227
▁ההמלצות	-7228
▁ההז	-7229
▁החיס	-7230
▁לשוק	-7231
▁27	-7232
▁המקשר	-7233
▁עצמכם	-7234
▁קיל	-7235
▁דרמט	-7236
▁מחכה	-7237
▁מצוינת	-7238
בעיה	-7239
▁הנצ	-7240
▁תחנות	-7241
▁ים	-7242
יתונים	-7243
כטנברג	-7244
▁ליישם	-7245
▁פיצוי	-7246
▁בקהילה	-7247
▁מעונות	-7248
▁זור	-7249
▁הגופים	-7250
▁עדיפות	-7251
מצאו	-7252
▁אשם	-7253
▁הגזענות	-7254
▁194	-7255
▁מנצ	-7256
▁אויב	-7257
▁הגזע	-7258
▁מבוס	-7259
▁אבנים	-7260
▁דמוקרט	-7261
▁תפסיקו	-7262
בירת	-7263
▁קדו	-7264
▁למוע	-7265
▁להסכם	-7266
▁ביציע	-7267
▁עליית	-7268
▁לאירוע	-7269
▁לביצוע	-7270
▁שחיתות	-7271
סיה	-7272
▁26	-7273
▁שראינו	-7274
▁הרלוונטיים	-7275
ווית	-7276
▁סמי	-7277
▁הכללים	-7278
▁רלוונטי	-7279
▁קואליציוניים	-7280
לטוב	-7281
▁לאנשי	-7282
▁התחייב	-7283
▁הפרויקט	-7284
▁לבעלי	-7285
▁אילטוב	-7286
יוו	-7287
רצח	-7288
▁ויא	-7289
וונתי	-7290
▁כתבי	-7291
▁נוסעים	-7292
▁בערוץ	-7293
▁משתתף	-7294
▁להסתפק	-7295
▁בשא	-7296
▁למעט	-7297
▁לפגיעה	-7298
▁החודשים	-7299
en	-7300
▁גג	-7301
▁במילים	-7302
▁בתיאום	-7303
זיר	-7304
זקת	-7305
מקד	-7306
▁קס	-7307
▁להתגייס	-7308
כבי	-7309
כנע	-7310
▁ממשיכה	-7311
▁20%	-7312
▁יסמין	-7313
▁שמדברים	-7314
/2	-7315
שוויון	-7316
▁הכרח	-7317
יוניות	-7318
▁חכם	-7319
▁שטחים	-7320
▁שעברו	-7321
▁שממשלת	-7322
▁חתי	-7323
▁לעד	-7324
▁ישנם	-7325
▁היותר	-7326
▁לעסקים	-7327
▁הקרקעות	-7328
▁הפוליטיקה	-7329
▁מאו	-7330
▁הגדר	-7331
בסוד	-7332
▁ימשיכו	-7333
ווירה	-7334
▁ידבר	-7335
▁ומג	-7336
▁המנכ	-7337
▁ובהת	-7338
בורג	-7339
▁שבק	-7340
▁משמעותיים	-7341
מעו	-7342
קנו	-7343
▁והול	-7344
▁מוסרית	-7345
▁האזרחות	-7346
גנו	-7347
▁בידיים	-7348
▁בלה	-7349
▁המחקר	-7350
סנר	-7351
גישו	-7352
▁מכת	-7353
גישים	-7354
▁לידה	-7355
▁קיומה	-7356
זי	-7357
▁פינוי	-7358
▁עומדות	-7359
▁מכובד	-7360
אתי	-7361
חיר	-7362
שישים	-7363
▁המלא	-7364
▁כלשהו	-7365
▁הציונית	-7366
▁תינו	-7367
זהר	-7368
רווח	-7369
▁כאב	-7370
▁מפי	-7371
▁מגיל	-7372
▁עוסקת	-7373
▁צל	-7374
ימרי	-7375
▁סגר	-7376
▁טענה	-7377
▁החדשות	-7378
ייד	-7379
▁פיל	-7380
נהלים	-7381
▁פלסטיני	-7382
שן	-7383
ודו	-7384
עדו	-7385
חקיר	-7386
▁כמוני	-7387
וטובוסים	-7388
▁למג	-7389
▁בבסיס	-7390
▁הצדקה	-7391
▁לחייב	-7392
▁הנית	-7393
▁השיפ	-7394
▁דיסטל	-7395
▁זכותו	-7396
▁בתשובה	-7397
▁המצוקה	-7398
סד	-7399
זיק	-7400
פגעי	-7401
▁ההלכה	-7402
▁המיסים	-7403
▁הפיתוח	-7404
▁המקצועי	-7405
▁האירועים	-7406
▁אסף	-7407
▁שביק	-7408
▁2009,	-7409
▁להעיר	-7410
▁בעברית	-7411
▁הכותרת	-7412
▁מוצרים	-7413
חלטה	-7414
רוגים	-7415
▁עצוב	-7416
▁לחקור	-7417
▁יכולתי	-7418
▁למליאה	-7419
▁יעד	-7420
שאלה	-7421
▁באב	-7422
▁אקרא	-7423
▁בשאלה	-7424
▁להוכיח	-7425
ou	-7426
▁לאיזו	-7427
ופון	-7428
▁כיו	-7429
▁לתוקף	-7430
▁שוועדת	-7431
▁שרצ	-7432
רחק	-7433
פרנס	-7434
▁אראל	-7435
▁היסטורית	-7436
רכנים	-7437
▁נאמן	-7438
▁נאפשר	-7439
▁נמוכה	-7440
▁הרפואי	-7441
▁ועושים	-7442
▁להתעסק	-7443
גול	-7444
ואש	-7445
וגה	-7446
▁בצער	-7447
▁סתיו	-7448
▁להרבה	-7449
▁לממשלת	-7450
▁מורכבת	-7451
▁לשירותי	-7452
-18	-7453
אילו	-7454
דיות	-7455
▁אתחיל	-7456
▁האסון	-7457
▁החברתיות	-7458
▁המסת	-7459
▁שאנו	-7460
▁הורדת	-7461
סית	-7462
זבאללה	-7463
▁אמשיך	-7464
לקות	-7465
טטיסט	-7466
▁ממתי	-7467
▁לקבלת	-7468
▁ערביות	-7469
▁הישראלים	-7470
ילית	-7471
▁500	-7472
ודאות	-7473
▁החבר	-7474
▁ואלי	-7475
▁שהור	-7476
▁המינהל	-7477
קד	-7478
קנים	-7479
▁הקל	-7480
▁המעמד	-7481
▁שנמצאת	-7482
▁העיניים	-7483
▁טיפה	-7484
גרום	-7485
▁להלן	-7486
טין	-7487
▁חסרת	-7488
▁חוקיים	-7489
▁חשובות	-7490
▁ההיגיון	-7491
▁דאגה	-7492
▁ולאפשר	-7493
קצב	-7494
▁שוטר	-7495
▁הצעיר	-7496
▁להניח	-7497
טרנטיבה	-7498
▁שאול	-7499
▁הארכת	-7500
▁מצוקה	-7501
▁רצוני	-7502
▁הישיבות	-7503
▁האוניברסי	-7504
▁דמ	-7505
▁מיוחדות	-7506
ליש	-7507
מינה	-7508
▁מאמצים	-7509
▁העונשין	-7510
למת	-7511
▁ההפך	-7512
▁הלשכה	-7513
שוי	-7514
▁ענ	-7515
▁בקצרה	-7516
▁השקעות	-7517
▁שיוכלו	-7518
▁תום	-7519
▁שקוראים	-7520
▁הארגונים	-7521
סמה	-7522
אומר	-7523
▁שדה	-7524
▁הישג	-7525
▁הערות	-7526
▁תחשבו	-7527
יעדר	-7528
▁לטע	-7529
▁בטרם	-7530
▁יעמוד	-7531
יבא	-7532
▁באנ	-7533
נדבות	-7534
▁סך	-7535
▁ליל	-7536
▁אחרונה	-7537
▁והשיכון	-7538
▁דאג	-7539
▁ויק	-7540
▁החוב	-7541
▁בכיר	-7542
▁הכללית	-7543
▁ולמרות	-7544
▁p	-7545
▁עטא	-7546
▁אומץ	-7547
▁הלוא	-7548
▁להיב	-7549
▁התברר	-7550
▁ביקשנו	-7551
▁הסדרים	-7552
▁פנו	-7553
▁יצטרך	-7554
▁לנאום	-7555
▁הצמיחה	-7556
בעו	-7557
▁למסור	-7558
▁תשמעו	-7559
למי	-7560
▁ניג	-7561
▁מפחד	-7562
▁תורת	-7563
▁מיש	-7564
▁מופז	-7565
▁קצין	-7566
▁בדיור	-7567
▁ציטוט	-7568
▁במליאת	-7569
▁פש	-7570
▁בתקנות	-7571
▁קנס	-7572
▁איתכם	-7573
▁בסיכון	-7574
יווי	-7575
▁בחיפה	-7576
▁f	-7577
▁סימן	-7578
▁רחבי	-7579
▁זוגות	-7580
▁שכתוב	-7581
יבוב	-7582
▁העת	-7583
▁ייתנו	-7584
▁מהחוק	-7585
▁הדורות	-7586
▁כבישים	-7587
▁עטאונה	-7588
▁תפקידים	-7589
▁בחדר	-7590
▁מצפים	-7591
▁סגירת	-7592
▁רוכ	-7593
▁בקריית	-7594
▁ההגדרה	-7595
▁כשע	-7596
▁למשק	-7597
▁נהרי	-7598
▁מהותי	-7599
▁ליהנות	-7600
▁לרב	-7601
▁הקלה	-7602
פלסטינים	-7603
▁בעבירות	-7604
▁נוצ	-7605
,000,	-7606
▁טייב	-7607
▁שהרבה	-7608
ינג	-7609
▁שכונות	-7610
▁הניצחון	-7611
שיח	-7612
חירי	-7613
▁ההסבר	-7614
ערים	-7615
▁בול	-7616
▁ההוא	-7617
▁הפחתת	-7618
▁תאפשר	-7619
▁החמ	-7620
▁העיקרי	-7621
▁במדיניות	-7622
▁תדע	-7623
גיעות	-7624
▁מתחילה	-7625
▁ובקריאה	-7626
▁דתית	-7627
▁ייס	-7628
▁הודיע	-7629
▁השדולה	-7630
▁מופת	-7631
▁שנשא	-7632
▁המעשה	-7633
▁בטלוויזיה	-7634
יטת	-7635
▁להפיל	-7636
▁נאומים	-7637
▁מעצ	-7638
▁לפניכם	-7639
▁משוחררים	-7640
▁לייצג	-7641
רונים	-7642
▁מרום	-7643
▁משילות	-7644
רד	-7645
מיו	-7646
▁אהיה	-7647
▁ההתק	-7648
▁הפיג	-7649
▁קבלן	-7650
טיביים	-7651
סימום	-7652
▁גובה	-7653
▁עדות	-7654
▁עמדו	-7655
▁קושי	-7656
it	-7657
צתה	-7658
פעול	-7659
קונו	-7660
▁גדל	-7661
סימון	-7662
▁לעצמכם	-7663
▁באח	-7664
▁חיצ	-7665
▁ליב	-7666
▁תפיסה	-7667
▁מובילים	-7668
חימה	-7669
תיחה	-7670
▁רשום	-7671
▁שמעו	-7672
▁יישום	-7673
▁האיחוד	-7674
מיך	-7675
▁פער	-7676
▁ילדה	-7677
▁לשתי	-7678
יתונאי	-7679
▁כיתות	-7680
▁לחסוך	-7681
▁הפנסיה	-7682
▁הזיכרון	-7683
▁הזדמנויות	-7684
טווח	-7685
▁קטנות	-7686
▁הסיבות	-7687
▁משכורת	-7688
▁האוכלוסיות	-7689
-10	-7690
▁הנכב	-7691
▁בעוני	-7692
▁שומעת	-7693
▁להגדיר	-7694
לגיטימציה	-7695
▁36	-7696
דורה	-7697
▁הקדו	-7698
▁שיצא	-7699
▁שבס	-7700
▁נדרשת	-7701
▁הפעולות	-7702
▁האמריקני	-7703
▁הוותיקים	-7704
▁המשת	-7705
▁הוז	-7706
נונים	-7707
▁נכנסו	-7708
▁היוזמה	-7709
▁התחלנו	-7710
טנדר	-7711
▁מבט	-7712
▁גרים	-7713
▁תרצה	-7714
▁הסכנה	-7715
▁להר	-7716
▁קיד	-7717
▁לקום	-7718
▁ביקור	-7719
▁מעביר	-7720
זקים	-7721
▁גלית	-7722
▁שנול	-7723
▁עמוקה	-7724
▁כשהייתי	-7725
מטיקה	-7726
▁הוגן	-7727
▁שליט	-7728
▁יהי	-7729
בולון	-7730
▁אצלו	-7731
▁נקבל	-7732
▁הביאה	-7733
והים	-7734
▁נטל	-7735
▁זוכרת	-7736
▁מוצרי	-7737
▁מהאנשים	-7738
דיט	-7739
פעם	-7740
פקח	-7741
▁סופה	-7742
▁פעיל	-7743
▁יחזור	-7744
▁מקיימים	-7745
וריות	-7746
▁מטפל	-7747
▁תיירות	-7748
▁הפוליטיים	-7749
▁בעיצ	-7750
▁לנמק	-7751
▁סיעה	-7752
▁להיום	-7753
▁בדיקות	-7754
▁היסטוריה	-7755
אותה	-7756
ניסו	-7757
▁ותודה	-7758
▁ביכולת	-7759
יכם	-7760
כתבו	-7761
▁בשעת	-7762
▁ישלם	-7763
▁הסכמי	-7764
▁צרכים	-7765
▁הישגים	-7766
▁מגורים	-7767
▁מסוכנת	-7768
▁שכנראה	-7769
▁כשנ	-7770
▁הכאב	-7771
▁עוני	-7772
▁השעון	-7773
▁מסביר	-7774
גדלת	-7775
▁לתי	-7776
▁קצי	-7777
צבאות	-7778
▁ירצה	-7779
▁הדקות	-7780
▁מושחת	-7781
el	-7782
מודי	-7783
פרסם	-7784
יסט	-7785
▁והצבעה	-7786
ברוך	-7787
▁הטל	-7788
▁2021,	-7789
▁שמייצ	-7790
▁תחושת	-7791
ביעי	-7792
נטים	-7793
▁למתן	-7794
▁שחור	-7795
▁טילים	-7796
▁לצמצום	-7797
יקרון	-7798
▁החקלאים	-7799
▁מחויבות	-7800
▁רבע	-7801
אקונו	-7802
▁השמות	-7803
▁ארנונה	-7804
▁הפרטית	-7805
▁תתקיים	-7806
▁אהוד	-7807
▁המשטר	-7808
▁לשקול	-7809
▁וחברותי	-7810
ואימניקים	-7811
▁ויי	-7812
▁ההכר	-7813
▁אצלכם	-7814
▁תרומה	-7815
▁ובנייה	-7816
▁להתנהל	-7817
כוף	-7818
שוות	-7819
▁כללים	-7820
▁פלסנר	-7821
▁תשתית	-7822
▁בישיבת	-7823
טתי	-7824
רבת	-7825
▁חן	-7826
▁198	-7827
▁אורח	-7828
▁הורה	-7829
▁אקריא	-7830
▁נמצאות	-7831
▁וגד	-7832
▁במשא	-7833
▁הדגל	-7834
▁נוסע	-7835
▁עזבו	-7836
▁הארגון	-7837
▁מחייבת	-7838
▁שאילתות	-7839
וקח	-7840
▁וכי	-7841
▁לבנון	-7842
▁ההד	-7843
▁וביק	-7844
▁שמטר	-7845
▁איזון	-7846
▁קריית	-7847
▁מתייחסים	-7848
טהייד	-7849
כרזים	-7850
▁נוצר	-7851
▁שעלו	-7852
▁האוכל	-7853
▁חיובי	-7854
▁לטרור	-7855
ריח	-7856
▁מקורות	-7857
▁תחומים	-7858
ניתי	-7859
▁ויושב	-7860
ומינסקי	-7861
▁איומים	-7862
▁האפליה	-7863
▁לעומק	-7864
בתא	-7865
רוכה	-7866
▁אוסיף	-7867
▁בכפוף	-7868
▁מלווה	-7869
▁ולהעביר	-7870
▁סלומינסקי	-7871
ושה	-7872
▁האיום	-7873
▁פיגוע	-7874
▁ורוצים	-7875
▁להצעות	-7876
▁אקדמ	-7877
▁מפשע	-7878
▁בספטמבר	-7879
▁ליישובים	-7880
▁ילכו	-7881
▁מכלל	-7882
▁מבוגרים	-7883
ומון	-7884
מותת	-7885
▁196	-7886
▁בקב	-7887
▁התקבל	-7888
▁והייתי	-7889
▁לסטודנטים	-7890
ורבות	-7891
▁פלוס	-7892
▁שטחי	-7893
▁השתנה	-7894
▁מישראל	-7895
▁שהבי	-7896
▁תלונה	-7897
▁באינטר	-7898
גיה	-7899
▁כיה	-7900
▁קורן	-7901
▁בעבוד	-7902
▁לטווח	-7903
▁שיכולה	-7904
פורש	-7905
▁בהע	-7906
▁הקשות	-7907
יטואציה	-7908
▁המשותף	-7909
▁הבדואית	-7910
▁וחוק	-7911
▁צווי	-7912
▁שאלו	-7913
▁חכמים	-7914
▁תאמינו	-7915
an	-7916
ימריז	-7917
▁לשבח	-7918
▁נדון	-7919
▁והציבור	-7920
▁הקבל	-7921
▁ואזרח	-7922
▁שראוי	-7923
▁פליטים	-7924
▁בפרק	-7925
היר	-7926
פגש	-7927
בטחה	-7928
▁אדום	-7929
▁ללמד	-7930
▁מזרסקי	-7931
רבגי	-7932
▁120	-7933
▁התנג	-7934
▁כדין	-7935
▁כללית	-7936
▁להרים	-7937
▁באישור	-7938
▁נכונות	-7939
ייני	-7940
▁חיוני	-7941
▁מהפכה	-7942
▁מפעלים	-7943
▁גינ	-7944
▁מודל	-7945
▁בעניינים	-7946
▁ונה	-7947
▁וערבים	-7948
▁נפגעים	-7949
▁תסתכלו	-7950
▁הפעלת	-7951
▁וחברת	-7952
▁ישירה	-7953
▁שניהם	-7954
גרם	-7955
צבים	-7956
▁שייק	-7957
▁השנאה	-7958
▁מצוות	-7959
▁פשיעה	-7960
▁רגילים	-7961
▁והמדינה	-7962
▁טוען	-7963
▁יצאה	-7964
▁נוהג	-7965
▁תקין	-7966
בריא	-7967
סוקים	-7968
▁בהכרח	-7969
▁דבריי	-7970
▁שנותן	-7971
▁מדינית	-7972
▁שאיננו	-7973
▁קריטריונים	-7974
וגן	-7975
רגו	-7976
▁גן	-7977
יסוי	-7978
▁הקיץ	-7979
▁ליועץ	-7980
▁העברנו	-7981
▁מצליחה	-7982
חשב	-7983
פקידי	-7984
▁סגמן	-7985
▁המשאבים	-7986
וסה	-7987
▁ולכ	-7988
מצעים	-7989
▁2009	-7990
▁הכנס	-7991
▁בעייתי	-7992
▁הבחירה	-7993
▁בפברואר	-7994
▁פרויקטים	-7995
חידי	-7996
מחים	-7997
▁נתנה	-7998
▁משתת	-7999
ידורים	-8000
▁לתע	-8001
▁מדע	-8002
▁בפנים	-8003
▁שנכון	-8004
▁הרפואה	-8005
▁לניצ	-8006
▁אובדן	-8007
▁בתחומי	-8008
▁משוכנע	-8009
▁400	-8010
▁וסר	-8011
▁חות	-8012
▁לכו	-8013
ובבים	-8014
▁מצאו	-8015
▁מטרות	-8016
▁ופתאום	-8017
▁ההתנתקות	-8018
יף	-8019
▁נחזור	-8020
וכנו	-8021
▁ההליך	-8022
▁המפעל	-8023
▁מחזיק	-8024
חדשות	-8025
טיאנה	-8026
▁מודע	-8027
▁הפגנות	-8028
וקו	-8029
▁המנד	-8030
▁בלשון	-8031
▁יונתן	-8032
▁בקיצור	-8033
▁48	-8034
▁ולפ	-8035
▁ממק	-8036
▁צער	-8037
▁בהלול	-8038
▁הפטור	-8039
▁שפשוט	-8040
▁הלוחמים	-8041
נמק	-8042
קבוע	-8043
▁הכהן	-8044
▁שמחז	-8045
▁באפרי	-8046
▁לעזוב	-8047
▁מהירה	-8048
▁שתיים	-8049
יקרופון	-8050
▁להפנות	-8051
▁הבטיחות	-8052
שיית	-8053
▁ההי	-8054
▁כנס	-8055
▁ברוח	-8056
▁למעמד	-8057
▁ניצול	-8058
▁עינינו	-8059
▁ביטחונית	-8060
אמר	-8061
לטו	-8062
▁ההנח	-8063
▁בערים	-8064
▁מזרח	-8065
חרומי	-8066
▁במוצ	-8067
▁וחבל	-8068
▁צפו	-8069
▁אהבת	-8070
▁בתום	-8071
▁החול	-8072
▁קנסות	-8073
▁הפרטים	-8074
▁טטיאנה	-8075
▁לפעילות	-8076
▁נחק	-8077
▁בקצב	-8078
▁מעצר	-8079
▁אמצעים	-8080
▁המורשת	-8081
פרץ	-8082
▁מתיי	-8083
▁הפסקת	-8084
▁שלפחות	-8085
▁תפקידה	-8086
▁בטי	-8087
▁דונם	-8088
▁והתע	-8089
▁יוגב	-8090
▁שהזכ	-8091
▁שמופ	-8092
▁האתיקה	-8093
▁זבולון	-8094
▁מחפשים	-8095
▁קמפיין	-8096
אלוג	-8097
▁בכלי	-8098
▁ברכב	-8099
▁המחו	-8100
▁פיזית	-8101
▁להגביל	-8102
בון	-8103
▁ואנו	-8104
▁בקושי	-8105
▁ודווקא	-8106
▁מוציאים	-8107
כישה	-8108
▁חנא	-8109
▁ניסן	-8110
▁ויהיה	-8111
▁העניינים	-8112
▁שנכ	-8113
▁ואגב	-8114
▁אולמרט	-8115
▁לעיתים	-8116
▁אלחרומי	-8117
וגיית	-8118
▁בפשיעה	-8119
▁התחלתי	-8120
▁להימנע	-8121
▁לחרדים	-8122
נקוט	-8123
▁בירן	-8124
▁גידול	-8125
▁הגבלת	-8126
חתן	-8127
יעד	-8128
▁העניים	-8129
▁לצרכים	-8130
▁לשון	-8131
▁החינו	-8132
▁הסתיי	-8133
▁שיקרה	-8134
▁ניצחון	-8135
▁לחם	-8136
▁מילא	-8137
▁מלכת	-8138
▁והשירותים	-8139
▁עדיפויות	-8140
▁בנה	-8141
▁לביקורת	-8142
▁ליבה	-8143
▁עמנו	-8144
▁במפורש	-8145
▁איחוד	-8146
▁התחושה	-8147
▁נקיים	-8148
▁שנותנים	-8149
▁האידיאול	-8150
למד	-8151
▁הרך	-8152
▁המוק	-8153
▁מצומ	-8154
▁פרקש	-8155
▁אוניברסי	-8156
-0	-8157
-50	-8158
▁בוחר	-8159
▁זוהיר	-8160
▁לתקוף	-8161
▁הדוגמה	-8162
לאט	-8163
ורשים	-8164
▁מקרב	-8165
▁לצורכי	-8166
▁המשפטיים	-8167
▁להתיישבות	-8168
טחת	-8169
▁האומ	-8170
▁הקבינט	-8171
-11	-8172
פקדים	-8173
נושאים	-8174
▁ייג	-8175
▁קונ	-8176
ודיעין	-8177
▁בהחלטה	-8178
▁בראשית	-8179
▁קיצוני	-8180
יטיב	-8181
▁בהיות	-8182
▁עטייה	-8183
▁עצמית	-8184
▁מסיימת	-8185
-14	-8186
ופעות	-8187
▁מוחל	-8188
▁אנושי	-8189
▁הפרדה	-8190
▁שלפעמים	-8191
▁הבאתי	-8192
▁החזון	-8193
▁מכולם	-8194
▁ציוני	-8195
▁שלמים	-8196
▁3,	-8197
▁מגב	-8198
▁ובהם	-8199
▁והבה	-8200
▁מובה	-8201
▁היחידי	-8202
▁מומחים	-8203
פלי	-8204
▁ותח	-8205
▁יבר	-8206
ומטית	-8207
▁שכתב	-8208
▁במצוקה	-8209
▁שהד	-8210
▁הבנו	-8211
▁ולהס	-8212
▁תופעות	-8213
▁התערבות	-8214
רתה	-8215
וגוסט	-8216
▁בונה	-8217
▁זוכה	-8218
▁פנייה	-8219
▁באחת	-8220
▁רכבת	-8221
▁לבל	-8222
▁יכלו	-8223
▁שאחד	-8224
▁אזכיר	-8225
▁אמנון	-8226
ואו	-8227
טחה	-8228
▁סמל	-8229
▁יוני	-8230
▁מעשים	-8231
▁נורית	-8232
▁התקבלו	-8233
▁הנוגעים	-8234
▁פצ	-8235
▁תז	-8236
ודעת	-8237
▁בענף	-8238
▁דחוף	-8239
▁ואטורי	-8240
טיחו	-8241
▁לשו	-8242
▁יופי	-8243
▁מונח	-8244
▁בתיקון	-8245
▁שונ	-8246
▁נפתח	-8247
▁הספצי	-8248
▁סוגיות	-8249
שוא	-8250
טרים	-8251
▁נכים	-8252
▁סבטל	-8253
▁משולם	-8254
▁יוצר	-8255
▁כולן	-8256
▁הדעות	-8257
▁חלה	-8258
זבורג	-8259
▁במקומו	-8260
▁דוברים	-8261
פחם	-8262
רגש	-8263
▁שאמרה	-8264
▁בילסקי	-8265
▁התחומים	-8266
ציגי	-8267
▁לפס	-8268
▁ושום	-8269
▁סילמן	-8270
▁חברותי	-8271
▁גינזבורג	-8272
ניע	-8273
▁ייה	-8274
▁איבד	-8275
▁כתבה	-8276
▁אירועי	-8277
▁שולחים	-8278
es	-8279
:00.	-8280
גשנו	-8281
לטות	-8282
▁יצר	-8283
▁שתת	-8284
▁קלנר	-8285
▁מסורת	-8286
▁הקולות	-8287
▁לחברים	-8288
▁אוז	-8289
▁במר	-8290
יינות	-8291
▁ניכר	-8292
▁מתברר	-8293
▁מתנהל	-8294
▁עברנו	-8295
▁סבטלובה	-8296
▁וקור	-8297
▁מושב	-8298
▁גיבוי	-8299
▁שומרים	-8300
▁האינטרנט	-8301
▁הקואליציוני	-8302
▁ונש	-8303
▁שאינה	-8304
▁ברוכים	-8305
▁הארנונה	-8306
לף	-8307
ורמן	-8308
זבוז	-8309
חסור	-8310
פולים	-8311
▁המומ	-8312
▁ממשל	-8313
ילויות	-8314
▁יוזמה	-8315
▁בוחרים	-8316
ורשת	-8317
▁החג	-8318
▁עתה	-8319
▁קלי	-8320
▁ושלא	-8321
▁הבטיח	-8322
▁הנציג	-8323
▁לאותן	-8324
▁ההסכמים	-8325
▁ההתנגדות	-8326
כחים	-8327
▁מהד	-8328
ניסים	-8329
▁שהתח	-8330
▁ההשכלה	-8331
▁העיקרית	-8332
שרדות	-8333
▁לוחם	-8334
▁בכיתה	-8335
▁ונכון	-8336
▁שיפוט	-8337
▁הקשישים	-8338
לוף	-8339
▁ולפני	-8340
▁השתתפות	-8341
וצרת	-8342
כותל	-8343
▁להיד	-8344
▁לצטט	-8345
טיביות	-8346
▁ונראה	-8347
▁כדו	-8348
▁דרישה	-8349
וגע	-8350
דהות	-8351
▁בחצי	-8352
▁וממש	-8353
▁מאין	-8354
▁תשאל	-8355
▁אמונה	-8356
▁המסורת	-8357
▁השופטת	-8358
▁מתקיים	-8359
▁שקיימת	-8360
▁מהנ	-8361
▁שבמק	-8362
▁מהלכים	-8363
▁מקדמים	-8364
▁מתים	-8365
▁בניין	-8366
▁השיפוט	-8367
▁לתקנון	-8368
▁שנאמרו	-8369
▁שחושבים	-8370
▁ללב	-8371
▁סקר	-8372
▁שעמד	-8373
▁דרמטי	-8374
▁לשלוט	-8375
▁נכנסת	-8376
▁אלוהים	-8377
▁בפוליטיקה	-8378
▁למטה	-8379
▁שנקבע	-8380
▁למינוי	-8381
▁הבסיסית	-8382
▁התנהגות	-8383
יניות	-8384
▁הדתי	-8385
▁אדירה	-8386
▁אשראי	-8387
▁האחרות	-8388
▁קובעים	-8389
▁מיד	-8390
▁מקדם	-8391
▁במושב	-8392
▁מרבית	-8393
▁עניינית	-8394
▁קורבנות	-8395
כרו	-8396
▁ישי	-8397
▁שתח	-8398
היסוד	-8399
▁הסוהר	-8400
▁לשנים	-8401
▁הבסיסי	-8402
▁בטענות	-8403
▁להגביר	-8404
מב	-8405
בריה	-8406
פורים	-8407
▁ניסו	-8408
▁האתיו	-8409
▁החלשים	-8410
▁המתווה	-8411
▁להשתלב	-8412
▁נאלצים	-8413
גוון	-8414
קיון	-8415
מכויות	-8416
▁גירעון	-8417
▁ממר	-8418
▁קדוש	-8419
▁תערי	-8420
▁אבידר	-8421
▁ברוורמן	-8422
al	-8423
▁ירדו	-8424
▁מלבד	-8425
סטודנט	-8426
▁המינה	-8427
▁ומעלה	-8428
▁יעלון	-8429
▁לכתוב	-8430
▁עברית	-8431
▁ולקבוע	-8432
ורח	-8433
שעה	-8434
ופין	-8435
שיון	-8436
▁עיכ	-8437
▁כפול	-8438
▁ויגיד	-8439
▁חשבנו	-8440
▁ישלמו	-8441
/1	-8442
▁הדח	-8443
▁ארצה	-8444
▁ורוצה	-8445
▁יחזרו	-8446
▁הכוחות	-8447
▁לפריפריה	-8448
רחיב	-8449
▁כשי	-8450
▁לרי	-8451
▁יועץ	-8452
פוי	-8453
▁ציפ	-8454
▁שמן	-8455
▁עצמאי	-8456
▁ואדוני	-8457
▁פופולי	-8458
-40	-8459
רחבת	-8460
▁ריק	-8461
מוקים	-8462
▁האסירים	-8463
▁השינויים	-8464
▁שפעם	-8465
▁הסתכל	-8466
▁ומייד	-8467
▁שלפיה	-8468
▁הסעיפים	-8469
▁התקציבי	-8470
▁נכה	-8471
▁אלוף	-8472
▁עצמן	-8473
▁בנפרד	-8474
▁ואללה	-8475
▁חזקים	-8476
▁נשארו	-8477
▁בסמכות	-8478
▁יציבות	-8479
▁רפורמות	-8480
כנן	-8481
▁61	-8482
▁נהג	-8483
▁הידי	-8484
▁השקט	-8485
▁לשמר	-8486
▁מגוון	-8487
▁שעליהם	-8488
▁הקה	-8489
▁אצלך	-8490
▁אלמוג	-8491
▁בחירה	-8492
▁האחים	-8493
▁ביקרתי	-8494
▁פוליטיות	-8495
▁מהאוכלוסייה	-8496
ביעית	-8497
▁בבעיה	-8498
▁מסוכנים	-8499
פסו	-8500
▁בכוונה	-8501
▁פותחים	-8502
▁שמנסים	-8503
▁במאה	-8504
▁מונו	-8505
▁בטעות	-8506
▁נורמלי	-8507
▁עבודות	-8508
.5	-8509
פארן	-8510
▁הספק	-8511
▁ראית	-8512
▁ובגלל	-8513
▁שעובר	-8514
▁התקדמות	-8515
▁להסכמות	-8516
פיכה	-8517
▁השמ	-8518
▁וסי	-8519
▁כוא	-8520
▁2011	-8521
▁רפור	-8522
▁המוני	-8523
▁לתל	-8524
▁ממח	-8525
▁הציע	-8526
▁והתק	-8527
▁נעשו	-8528
▁לסיוע	-8529
▁וכנראה	-8530
וחד	-8531
▁זל	-8532
▁והכי	-8533
▁לנקוט	-8534
▁גרמניה	-8535
▁האנושי	-8536
▁העמותות	-8537
מקה	-8538
ערה	-8539
▁דרכו	-8540
▁פוגל	-8541
▁להתמודדות	-8542
גרש	-8543
▁נגיף	-8544
מטות	-8545
▁ולג	-8546
▁ומד	-8547
▁שמט	-8548
▁המושב	-8549
▁למשוך	-8550
▁ופיתוח	-8551
▁הציג	-8552
▁רובי	-8553
▁מבנים	-8554
▁כמש	-8555
▁אובמה	-8556
▁המושג	-8557
▁תופעת	-8558
▁החרדיות	-8559
▁המשילות	-8560
▁הנדרשים	-8561
שתית	-8562
▁ברע	-8563
▁פנה	-8564
▁בבאר	-8565
▁הסכים	-8566
▁לשכוח	-8567
▁הטרומית	-8568
▁הסוציאליים	-8569
ועצות	-8570
▁באתר	-8571
▁כושר	-8572
▁קיבלת	-8573
▁עלויות	-8574
▁לתושבים	-8575
▁הנטל	-8576
▁מאותם	-8577
▁שלמות	-8578
▁ענף	-8579
▁הפשע	-8580
▁לפרסם	-8581
יריות	-8582
▁הדלת	-8583
▁החרי	-8584
▁המענה	-8585
▁לעצמה	-8586
▁משנים	-8587
▁שלצערי	-8588
גף	-8589
▁הארצית	-8590
שרנו	-8591
ואשלה	-8592
▁חשבו	-8593
▁באותן	-8594
▁שהמשרד	-8595
▁הדמוקרטית	-8596
▁נקב	-8597
▁הקרב	-8598
▁הונחה	-8599
לקו	-8600
▁וצע	-8601
▁חדר	-8602
▁כאל	-8603
▁שכשה	-8604
▁ואסור	-8605
▁לנדבר	-8606
ובדת	-8607
▁שממש	-8608
▁הרבים	-8609
▁המקצועית	-8610
▁הציבוריים	-8611
▁קחו	-8612
▁השקר	-8613
▁מגלי	-8614
▁הקונס	-8615
לקט	-8616
מוץ	-8617
▁ופע	-8618
▁שתמיד	-8619
▁התשובות	-8620
כרם	-8621
▁תרג	-8622
▁מצוקת	-8623
▁הטענות	-8624
▁להשוות	-8625
▁מלחמות	-8626
▁רועי	-8627
▁גיבור	-8628
▁המוחל	-8629
▁נתקבלו	-8630
▁32	-8631
וטים	-8632
לווה	-8633
▁הסי	-8634
רצנו	-8635
▁ירו	-8636
▁גאים	-8637
▁הסבר	-8638
▁תשיב	-8639
▁מתפלא	-8640
▁ההוראה	-8641
▁אלהואשלה	-8642
ראתי	-8643
▁סגור	-8644
▁הסדרת	-8645
▁לאס	-8646
▁פוס	-8647
▁המזכ	-8648
▁שחברת	-8649
▁בחברות	-8650
▁המוחלט	-8651
חן	-8652
צרות	-8653
▁תתע	-8654
▁החלה	-8655
▁מכרז	-8656
▁ברצוע	-8657
▁ואופן	-8658
▁פגשתי	-8659
▁הודעות	-8660
וכח	-8661
חיד	-8662
▁הומ	-8663
▁הפור	-8664
▁הקושי	-8665
▁לפלסטי	-8666
▁סוציאלי	-8667
▁מקצועיים	-8668
שורה	-8669
▁לשת	-8670
▁ברשימה	-8671
▁דהיינו	-8672
▁להפגין	-8673
▁מצטר	-8674
▁שאותה	-8675
▁המודעות	-8676
▁המזרחית	-8677
▁מופר	-8678
▁המבחן	-8679
▁למחוק	-8680
▁להתפלל	-8681
▁שינה	-8682
▁בהיבט	-8683
▁ביתר	-8684
▁לאמץ	-8685
▁וראיתי	-8686
▁29	-8687
▁תמרי	-8688
▁בודקים	-8689
▁לשרה	-8690
▁לאזור	-8691
▁צרפתי	-8692
▁העיסוק	-8693
▁מובילה	-8694
▁עסוקים	-8695
▁מהליכוד	-8696
▁90	-8697
-199	-8698
לונן	-8699
▁רות	-8700
▁הראו	-8701
▁שנעשו	-8702
▁עצמאית	-8703
▁הקריטריונים	-8704
▁אברהים	-8705
▁הדרוזי	-8706
▁ריבונות	-8707
▁המתנחלים	-8708
▁2015	-8709
▁שאיב	-8710
▁האוזר	-8711
▁העלות	-8712
▁מחליט	-8713
▁d	-8714
מסר	-8715
▁197	-8716
▁ושלום	-8717
▁הדרישה	-8718
▁ייר	-8719
▁שסי	-8720
▁מאותה	-8721
▁כשאין	-8722
וכה	-8723
ומרי	-8724
רנית	-8725
▁2000	-8726
▁להרג	-8727
▁לעיל	-8728
▁דוחות	-8729
▁הזכיר	-8730
▁נאמנה	-8731
▁סולומון	-8732
ובש	-8733
▁הלה	-8734
▁דופן	-8735
▁הפסקה	-8736
▁ערביים	-8737
▁גלי	-8738
▁דבי	-8739
▁קרב	-8740
▁טווח	-8741
▁להנח	-8742
▁עצומה	-8743
▁המשימה	-8744
▁התיישבות	-8745
▁סף	-8746
לוות	-8747
▁לסג	-8748
▁תוכ	-8749
▁לקצר	-8750
▁תצטרך	-8751
פץ	-8752
בייה	-8753
▁סבא	-8754
טרטגי	-8755
יאוגר	-8756
▁הפיק	-8757
▁אציין	-8758
▁להרוג	-8759
▁מתקבל	-8760
▁קיימות	-8761
▁שקיבלו	-8762
▁מההת	-8763
▁שקשה	-8764
▁מסודר	-8765
▁תמה	-8766
▁תמיכת	-8767
▁יעלו	-8768
▁לומד	-8769
▁נרצח	-8770
▁יצירת	-8771
▁יוצרים	-8772
▁שהוועדה	-8773
לכו	-8774
ניהן	-8775
▁מהט	-8776
▁חזרו	-8777
▁שבכלל	-8778
▁שיצאו	-8779
▁מנהיגים	-8780
כחו	-8781
דרום	-8782
▁דלק	-8783
▁עליון	-8784
▁תקיפה	-8785
▁פתוחים	-8786
▁הוו	-8787
▁פוש	-8788
▁יחיד	-8789
▁ההכרה	-8790
▁כשרות	-8791
▁תחילה	-8792
▁שליחות	-8793
ופט	-8794
אותו	-8795
▁מתה	-8796
▁מחבל	-8797
ילונים	-8798
▁להכין	-8799
▁לכפות	-8800
▁תבינו	-8801
▁תיכנס	-8802
▁דרמטית	-8803
▁הקשיים	-8804
▁למדינות	-8805
▁משותפים	-8806
▁אמו	-8807
▁חיפ	-8808
▁תצא	-8809
נויות	-8810
▁ואליד	-8811
▁שעליה	-8812
▁שבמקום	-8813
אלתי	-8814
לאים	-8815
▁סיכ	-8816
▁שמג	-8817
▁פלסט	-8818
▁חיינו	-8819
▁לכלכלה	-8820
עתה	-8821
פלו	-8822
יונה	-8823
▁איתה	-8824
▁המיל	-8825
▁הופכת	-8826
▁שאילתא	-8827
▁בכבישים	-8828
▁ההוצאות	-8829
▁ההשלכות	-8830
נוס	-8831
▁המעבר	-8832
▁השכלה	-8833
▁והכנסת	-8834
▁מעורבות	-8835
▁התיקונים	-8836
▁38	-8837
▁ידו	-8838
▁תלך	-8839
▁ישנו	-8840
▁לישון	-8841
▁למדנו	-8842
▁10,000	-8843
▁היקרים	-8844
▁ביטחוניים	-8845
כנות	-8846
יסאות	-8847
▁אהבה	-8848
▁מרגע	-8849
▁בתורה	-8850
▁משימה	-8851
▁קסניה	-8852
▁אמירות	-8853
תיב	-8854
ירון	-8855
▁הפחד	-8856
▁וההת	-8857
▁מלכה	-8858
▁החייל	-8859
▁שהמצב	-8860
▁עבדאללה	-8861
טק	-8862
▁בפק	-8863
▁לער	-8864
▁שזק	-8865
▁תוס	-8866
▁היכן	-8867
▁והאי	-8868
▁נלחם	-8869
▁פולק	-8870
▁באוצר	-8871
▁מתוקנת	-8872
טטיסטיקה	-8873
▁באזורים	-8874
יסור	-8875
▁אנט	-8876
▁מצח	-8877
▁הסדרה	-8878
▁לאלימות	-8879
▁הראשונות	-8880
▁מלכתחילה	-8881
דרון	-8882
▁הדם	-8883
▁מסוב	-8884
▁פותח	-8885
מוסדות	-8886
▁אוסלו	-8887
▁זיהום	-8888
▁ישבנו	-8889
▁מתקציב	-8890
▁אמיתיים	-8891
▁במו	-8892
▁איוב	-8893
▁בדקתי	-8894
▁הנוגע	-8895
▁העוול	-8896
▁לשלול	-8897
▁סטודנט	-8898
▁מתכוונת	-8899
-16	-8900
מכת	-8901
▁ופר	-8902
▁משי	-8903
▁ששת	-8904
▁אאפשר	-8905
▁ואילו	-8906
▁תיתנו	-8907
▁ודברים	-8908
▁עבודתם	-8909
▁פצועים	-8910
▁באוגוסט	-8911
▁הסבירות	-8912
▁תיקח	-8913
▁הומני	-8914
▁פנסיה	-8915
▁שהביא	-8916
▁יוק	-8917
▁הבאנו	-8918
▁עליתי	-8919
וחם	-8920
צוי	-8921
▁מתקן	-8922
▁בתוקף	-8923
▁הגורם	-8924
▁החומר	-8925
▁השטחים	-8926
ובעת	-8927
שמאל	-8928
בושים	-8929
▁חריג	-8930
▁שקרו	-8931
▁ועושה	-8932
▁אתגרים	-8933
om	-8934
▁הנדל	-8935
▁זמנים	-8936
▁להסכמה	-8937
ארכת	-8938
▁תחומי	-8939
▁תנח	-8940
▁ירון	-8941
▁קונה	-8942
▁פנימה	-8943
▁למטרות	-8944
▁מגיעות	-8945
▁הכלכליים	-8946
דוף	-8947
▁סט	-8948
יווק	-8949
▁הסף	-8950
▁ויד	-8951
▁הוגשה	-8952
▁שבגלל	-8953
▁מפריעים	-8954
כרת	-8955
קול	-8956
▁לגשת	-8957
▁מונע	-8958
ידריות	-8959
▁הבטחות	-8960
▁שאדוני	-8961
וסקוב	-8962
▁בממוצע	-8963
-13	-8964
פוט	-8965
▁בלע	-8966
▁ורצ	-8967
וכנים	-8968
פללים	-8969
▁בעלת	-8970
▁לדמי	-8971
▁סומך	-8972
▁העשייה	-8973
▁הטלוויזיה	-8974
▁בבג	-8975
▁דיין	-8976
▁ניסה	-8977
▁בשמחה	-8978
▁מצאתי	-8979
▁אפשרויות	-8980
▁לפלסטינים	-8981
שט	-8982
ביס	-8983
▁לבק	-8984
▁חושש	-8985
▁אשמים	-8986
▁העולמי	-8987
▁למסקנה	-8988
▁קיימנו	-8989
חב	-8990
צקי	-8991
קציה	-8992
ראייה	-8993
▁האומה	-8994
▁הייעוץ	-8995
▁אוטומטי	-8996
▁משפטיים	-8997
▁ואופוזיציה	-8998
דרו	-8999
▁זכו	-9000
▁שלק	-9001
▁הנתון	-9002
▁חילונים	-9003
רחבה	-9004
▁שומרי	-9005
▁הצליחה	-9006
▁התקווה	-9007
▁מעורבים	-9008
▁פלוסקוב	-9009
▁עמו	-9010
מירות	-9011
▁להפר	-9012
▁2022,	-9013
▁שמירת	-9014
▁תישאר	-9015
▁לחיזוק	-9016
▁תמונות	-9017
▁שציינתי	-9018
▁השלט	-9019
▁בחופש	-9020
▁הירוק	-9021
כנז	-9022
▁הכב	-9023
▁ללש	-9024
▁בחוסר	-9025
▁התייע	-9026
▁מערוף	-9027
▁הענישה	-9028
▁ההכנסות	-9029
פכו	-9030
פעיל	-9031
▁ישע	-9032
▁רעש	-9033
▁כלשהי	-9034
▁מבצעים	-9035
▁שוויונית	-9036
▁המקצועיים	-9037
ופול	-9038
▁שהנ	-9039
מולים	-9040
▁שבני	-9041
▁וחרפה	-9042
▁חקיקת	-9043
▁הדרוזים	-9044
פסת	-9045
▁קח	-9046
▁החשש	-9047
▁שיעורי	-9048
▁האתגרים	-9049
תייצב	-9050
▁מלים	-9051
▁שעני	-9052
▁בטוחים	-9053
▁התרופות	-9054
▁רוני	-9055
פוני	-9056
▁ינו	-9057
▁מעש	-9058
רצחים	-9059
▁הסיפ	-9060
▁שהרי	-9061
▁דבריך	-9062
▁שמכיר	-9063
טיחה	-9064
▁פרו	-9065
▁הפשוט	-9066
▁מיידית	-9067
▁ספרי	-9068
לכתיות	-9069
▁לנשיא	-9070
▁מחשבה	-9071
▁שלאחר	-9072
▁פולקמן	-9073
▁למשהו	-9074
▁ממליץ	-9075
▁ניתנה	-9076
▁בחוקים	-9077
▁וילדים	-9078
▁ההיסטורי	-9079
אח	-9080
▁לרכ	-9081
▁וכול	-9082
▁חולק	-9083
▁הנדרש	-9084
▁כרטיס	-9085
▁פיקוד	-9086
▁ייד	-9087
▁לגד	-9088
ודעות	-9089
קדמיה	-9090
▁חיות	-9091
▁מטבע	-9092
▁ומבקש	-9093
▁נפשות	-9094
▁תחזור	-9095
▁ששמעתי	-9096
טניה	-9097
▁להפק	-9098
▁לשמש	-9099
▁קורת	-9100
-1,000	-9101
▁מקרוב	-9102
סיבי	-9103
▁הות	-9104
▁שיבואו	-9105
הד	-9106
וצפה	-9107
מהלך	-9108
▁העלה	-9109
▁ירדן	-9110
▁טרכטנברג	-9111
5%,	-9112
מעת	-9113
ניף	-9114
▁to	-9115
▁חלוקה	-9116
▁הנחיות	-9117
▁המערכות	-9118
חדל	-9119
▁מוא	-9120
▁שקיבל	-9121
▁ניסיתי	-9122
▁והקליטה	-9123
▁גרם	-9124
▁משאל	-9125
▁החלוקה	-9126
גיעים	-9127
▁הגדרה	-9128
▁מוזמן	-9129
▁ריבית	-9130
▁הצלחתי	-9131
▁להרשות	-9132
ar	-9133
משת	-9134
▁לקצץ	-9135
▁שנתנו	-9136
▁מתייחסת	-9137
▁גו	-9138
▁מגזר	-9139
▁לזהות	-9140
▁למשפט	-9141
▁שכרגע	-9142
▁אחראים	-9143
▁הבניין	-9144
▁שהילדים	-9145
▁המוסלמים	-9146
▁מעוניינים	-9147
▁אכז	-9148
▁בגב	-9149
▁נורמ	-9150
▁טרופר	-9151
לבים	-9152
▁עסוק	-9153
▁פניה	-9154
▁דיברה	-9155
▁החלטתי	-9156
▁התקיים	-9157
▁נרצחים	-9158
▁וממ	-9159
▁וקצ	-9160
▁הזוי	-9161
רכיבים	-9162
▁והגליל	-9163
▁המחבלים	-9164
▁חברתיות	-9165
שש	-9166
▁סבור	-9167
▁המחלה	-9168
▁הסברה	-9169
▁לחתום	-9170
אקונומי	-9171
רוויחים	-9172
▁בראשותו	-9173
יזר	-9174
פנה	-9175
מעלה	-9176
▁המז	-9177
▁שיז	-9178
▁בסרט	-9179
▁וכעת	-9180
▁כדבר	-9181
▁בחזית	-9182
▁תפקידי	-9183
▁אצלם	-9184
▁העברי	-9185
▁סילבן	-9186
▁עלולה	-9187
▁אחוזים	-9188
▁ליישום	-9189
▁הקדנציה	-9190
ליחות	-9191
▁הניס	-9192
▁מגיש	-9193
▁ימינה	-9194
▁בצו	-9195
▁קופ	-9196
▁בהשת	-9197
▁לפקח	-9198
▁קווי	-9199
▁החלטנו	-9200
▁ממדינות	-9201
▁גי	-9202
▁לחג	-9203
בריאן	-9204
▁המוט	-9205
▁הצעדים	-9206
▁להרגיש	-9207
▁לשיפור	-9208
▁פא	-9209
▁קד	-9210
שמים	-9211
▁הרא	-9212
▁לצפות	-9213
▁בירת	-9214
▁נובע	-9215
▁שאמה	-9216
▁לזוגות	-9217
▁אטבריאן	-9218
▁מפנה	-9219
▁לוחמי	-9220
▁מודעים	-9221
▁ההישגים	-9222
▁שבמסגרת	-9223
הע	-9224
▁חוה	-9225
▁קופת	-9226
▁באפריל	-9227
▁שעתיים	-9228
▁מחליטים	-9229
▁תהליכים	-9230
▁פגע	-9231
▁המוב	-9232
▁למשא	-9233
זבוזוב	-9234
▁הצבעת	-9235
▁תחליט	-9236
געות	-9237
יקרו	-9238
▁בשדה	-9239
▁ויתר	-9240
▁מחובת	-9241
▁לבחירת	-9242
▁טרי	-9243
▁פיננס	-9244
כרתי	-9245
דיקים	-9246
▁ואמרה	-9247
▁לאכוף	-9248
▁בטלפון	-9249
▁הקיצוני	-9250
▁הסתיים	-9251
▁מודעות	-9252
▁רזבוזוב	-9253
חיות	-9254
▁דנה	-9255
▁אתגר	-9256
▁ובית	-9257
▁מקלט	-9258
▁מרשה	-9259
▁מעדיף	-9260
▁מפעיל	-9261
▁במשרדי	-9262
▁מורידים	-9263
▁שנתניהו	-9264
or	-9265
סלר	-9266
בחרי	-9267
▁במבחן	-9268
▁לשרים	-9269
▁מוצדק	-9270
▁מכבדים	-9271
פאה	-9272
▁בכנס	-9273
▁למשך	-9274
▁במוסד	-9275
▁הוצאה	-9276
▁צביקה	-9277
▁בהסכמת	-9278
▁חילוקי	-9279
▁באוניברסיטה	-9280
▁נפט	-9281
▁שעלה	-9282
▁ביוקר	-9283
▁עיתון	-9284
▁ברשתות	-9285
▁יסודות	-9286
פיסת	-9287
רקטור	-9288
▁התשל	-9289
▁וגור	-9290
▁יאסר	-9291
▁שגרי	-9292
▁אמרתם	-9293
▁בסכנה	-9294
▁השכבות	-9295
טון	-9296
נני	-9297
▁בצע	-9298
▁כשת	-9299
▁הטכנול	-9300
▁הצבאית	-9301
▁להאשים	-9302
▁4,	-9303
▁195	-9304
▁ולמש	-9305
▁עזרא	-9306
▁ההרוגים	-9307
ניש	-9308
השגה	-9309
▁ממו	-9310
▁המדו	-9311
▁שוחד	-9312
▁חופשית	-9313
▁מעניינת	-9314
▁למדיניות	-9315
▁הזוג	-9316
▁שהכי	-9317
▁הגישו	-9318
▁זכותם	-9319
▁שיודע	-9320
▁שנראה	-9321
רסו	-9322
שתם	-9323
חייבת	-9324
▁האינ	-9325
▁תדון	-9326
▁במשהו	-9327
▁קטרין	-9328
▁הפרסום	-9329
▁להבדיל	-9330
▁להכריז	-9331
▁למשפחת	-9332
▁לתקשורת	-9333
▁מתקדמים	-9334
יועץ	-9335
▁מנהלי	-9336
▁שיחות	-9337
דינו	-9338
▁יברקן	-9339
▁לוקחת	-9340
▁לתפוס	-9341
▁ניסים	-9342
▁רצינו	-9343
▁שנדרש	-9344
הת	-9345
מרץ	-9346
וצעו	-9347
ינוס	-9348
▁תוכן	-9349
▁החופש	-9350
▁חיבור	-9351
▁ציונים	-9352
▁המגזרים	-9353
מלים	-9354
▁גוא	-9355
▁חלב	-9356
▁בחרו	-9357
▁מסמך	-9358
▁ומקבל	-9359
▁תמורת	-9360
▁המרכזיים	-9361
▁טלוויזיה	-9362
et	-9363
▁דברו	-9364
▁הרצי	-9365
יקונים	-9366
▁נראית	-9367
▁ומדברים	-9368
▁ארז	-9369
▁הרעה	-9370
▁מנצל	-9371
▁מסור	-9372
▁במילה	-9373
▁הגבלה	-9374
▁המבצע	-9375
▁עקרון	-9376
▁שמתנגד	-9377
▁הצביעות	-9378
ביק	-9379
יער	-9380
▁שטוב	-9381
▁שיטה	-9382
▁הטבעי	-9383
▁שאליו	-9384
▁בכניסה	-9385
▁בתשתיות	-9386
▁המערבית	-9387
וער	-9388
ייג	-9389
לאת	-9390
רקו	-9391
וטות	-9392
שימו	-9393
▁נוהל	-9394
ביישים	-9395
▁וראוי	-9396
▁ראייה	-9397
▁מתקנים	-9398
בנו	-9399
נטר	-9400
חוקק	-9401
▁ובד	-9402
▁אוהד	-9403
▁תחנת	-9404
▁בניית	-9405
▁אישיות	-9406
▁עובדיה	-9407
▁מפגינים	-9408
▁43	-9409
▁דרג	-9410
▁ברשת	-9411
▁הפרת	-9412
▁לטובה	-9413
▁האה	-9414
▁רוס	-9415
▁המדה	-9416
▁ודבר	-9417
▁עוזי	-9418
▁רישום	-9419
▁שותפות	-9420
▁תצביעו	-9421
▁יהודיים	-9422
וללות	-9423
ירותו	-9424
▁והמס	-9425
▁שמסת	-9426
▁החמור	-9427
▁הרכבי	-9428
▁להמתין	-9429
▁מקווים	-9430
▁33	-9431
▁טכ	-9432
יכיא	-9433
▁ההצ	-9434
▁ותר	-9435
▁וועדת	-9436
▁פרסונ	-9437
▁שבדרך	-9438
▁לבנייה	-9439
▁קטינים	-9440
▁הממשלות	-9441
חזיר	-9442
כלים	-9443
▁2010	-9444
▁מהחברה	-9445
▁פסיכול	-9446
▁מרו	-9447
▁כשלא	-9448
▁נצרת	-9449
▁מדויק	-9450
▁הזכאות	-9451
תקן	-9452
▁לחבריי	-9453
:3	-9454
▁y	-9455
חייה	-9456
▁ומאז	-9457
▁ופעם	-9458
▁מתעל	-9459
▁שירת	-9460
▁התשלום	-9461
▁פשוטים	-9462
▁האחת	-9463
▁הבאת	-9464
▁הפרס	-9465
▁משמר	-9466
▁בהקמת	-9467
▁ותמיד	-9468
▁חסרים	-9469
▁שנשאר	-9470
▁ניסיונות	-9471
-17	-9472
אונת	-9473
יגון	-9474
▁אלף	-9475
▁סגני	-9476
▁בכוונת	-9477
▁חמורים	-9478
▁בתוכניות	-9479
▁פוליטיקאים	-9480
רף	-9481
דהן	-9482
▁44	-9483
▁בעני	-9484
▁והפר	-9485
▁ומשת	-9486
ודק	-9487
▁שחל	-9488
▁שפת	-9489
ביאים	-9490
▁בחבר	-9491
▁זקוק	-9492
קטיבית	-9493
▁הכולל	-9494
▁החסימה	-9495
▁בהשוואה	-9496
-1,	-9497
בוי	-9498
טריו	-9499
יבוד	-9500
יעונים	-9501
▁מאזרחי	-9502
▁משב	-9503
▁מבנה	-9504
▁הכיסא	-9505
▁המועד	-9506
▁לעצמך	-9507
▁חנוך	-9508
▁מתפר	-9509
▁ענישה	-9510
▁לחיילי	-9511
▁h	-9512
אגיד	-9513
ייטק	-9514
▁בים	-9515
▁האשה	-9516
▁הדואר	-9517
▁הפגנה	-9518
▁לבקשת	-9519
נדב	-9520
▁אשה	-9521
▁סון	-9522
▁איבה	-9523
▁לשטח	-9524
▁ששמע	-9525
▁ואנשי	-9526
▁בכפרים	-9527
▁ומדינת	-9528
▁ליישוב	-9529
▁סנקציות	-9530
▁פעל	-9531
▁רעב	-9532
מטרים	-9533
▁השעות	-9534
▁שגרים	-9535
▁שנוגע	-9536
▁שעובד	-9537
▁המהפכה	-9538
▁עצמאות	-9539
▁שרואים	-9540
▁המנגנון	-9541
▁למוסדות	-9542
200	-9543
▁ביח	-9544
רפאלי	-9545
▁צדיק	-9546
▁זוכים	-9547
▁תפילה	-9548
▁להשמיע	-9549
▁הנכבדים	-9550
▁מסתננים	-9551
▁היהודיים	-9552
▁בקלות	-9553
▁כחברי	-9554
שבועיים	-9555
▁כלכליות	-9556
בטאו	-9557
▁והרי	-9558
▁הגיור	-9559
▁הלידה	-9560
▁שמאוד	-9561
▁ברגעים	-9562
▁המיועד	-9563
▁בסיסיים	-9564
יימה	-9565
רמניה	-9566
▁קבינט	-9567
▁מאנשים	-9568
▁צודקים	-9569
▁שקשורים	-9570
פיהם	-9571
▁חילי	-9572
▁מרגש	-9573
▁דומים	-9574
▁עמיחי	-9575
▁התנחלויות	-9576
▁זמנ	-9577
▁תכלית	-9578
▁בחקירה	-9579
▁במתן	-9580
▁הצער	-9581
▁הרחבה	-9582
▁קריאת	-9583
▁בהוראת	-9584
▁המחוקק	-9585
▁הצבעות	-9586
ישית	-9587
▁אחי	-9588
▁מחד	-9589
שימים	-9590
▁ההשפ	-9591
ורן	-9592
חיתות	-9593
▁והמת	-9594
▁מקריא	-9595
▁אפשרית	-9596
▁וישראל	-9597
▁נשארים	-9598
▁באזרחים	-9599
ויה	-9600
נוק	-9601
וויות	-9602
ונגרס	-9603
▁צפון	-9604
▁הריבית	-9605
▁לשאילתה	-9606
▁כוש	-9607
▁היעד	-9608
▁ויחד	-9609
▁מגלה	-9610
▁פניו	-9611
▁הסיכום	-9612
▁יישארו	-9613
דיע	-9614
תית	-9615
▁יתרה	-9616
▁לקרי	-9617
▁ממדינת	-9618
▁תשלומי	-9619
▁באיזשהו	-9620
בש	-9621
כנה	-9622
▁הלכ	-9623
▁והז	-9624
▁דעתם	-9625
▁הצטר	-9626
▁תירוש	-9627
▁לארצות	-9628
▁לתכנון	-9629
▁מגישים	-9630
▁עבריין	-9631
▁להוראות	-9632
▁מתעסקים	-9633
-50%	-9634
▁הפה	-9635
▁זכה	-9636
▁לזמן	-9637
▁מוזר	-9638
▁שהוב	-9639
▁זכיתי	-9640
▁עוצמה	-9641
▁שבתוך	-9642
▁בשלושה	-9643
▁התגייס	-9644
▁והדברים	-9645
▁המסתננים	-9646
יהום	-9647
▁ואינ	-9648
▁צבוע	-9649
חוקקים	-9650
▁טראמפ	-9651
▁יצוין	-9652
▁מדגיש	-9653
▁פרטים	-9654
▁שאינן	-9655
▁חקירות	-9656
▁משפחתי	-9657
▁מקצועות	-9658
קסט	-9659
טיאס	-9660
▁הרת	-9661
▁סאל	-9662
▁צרפת	-9663
▁שקובע	-9664
▁שממ	-9665
▁מחול	-9666
ישורים	-9667
▁הזרים	-9668
▁ומאוד	-9669
▁בקורונה	-9670
▁השחיתות	-9671
נקה	-9672
יראת	-9673
▁לגעת	-9674
▁התפוצות	-9675
▁ספציפית	-9676
▁שהתקציב	-9677
כנת	-9678
▁נטו	-9679
ודדים	-9680
ראינה	-9681
▁מוסף	-9682
▁במהרה	-9683
▁דורות	-9684
▁חשיבה	-9685
▁ספרים	-9686
▁כשמדברים	-9687
▁לאוכלוסיות	-9688
▁34	-9689
▁מרוב	-9690
▁אמריק	-9691
▁הואיל	-9692
▁לשלוש	-9693
5%.	-9694
אמה	-9695
ליית	-9696
▁סעד	-9697
▁בנפש	-9698
▁למגר	-9699
▁מתוכ	-9700
▁מעורב	-9701
▁פתוחה	-9702
▁תסביר	-9703
▁עלולים	-9704
▁הטבח	-9705
▁לאתר	-9706
מוכרים	-9707
▁אויבי	-9708
מנוע	-9709
▁מזרחי	-9710
▁ממונה	-9711
▁מצווה	-9712
▁משרדך	-9713
▁ההשקעה	-9714
זין	-9715
טורה	-9716
▁ברג	-9717
▁בתיק	-9718
▁ומתוך	-9719
▁מגבלות	-9720
▁מדהימה	-9721
▁שוויוני	-9722
יול	-9723
לבות	-9724
פטור	-9725
כללות	-9726
▁המאה	-9727
▁מרכיב	-9728
▁תביאו	-9729
▁דרישות	-9730
▁התוספת	-9731
▁להתחתן	-9732
▁הקודמות	-9733
יאו	-9734
אדלה	-9735
▁רוד	-9736
בטחות	-9737
▁הקיב	-9738
▁מחנה	-9739
▁מידת	-9740
▁עיקר	-9741
▁רגיש	-9742
▁אטיאס	-9743
▁ייצור	-9744
▁לחימה	-9745
▁הכוללת	-9746
▁זכויותיהם	-9747
כנסו	-9748
▁הסג	-9749
▁נשב	-9750
גינות	-9751
▁לאום	-9752
▁משקל	-9753
▁הבנות	-9754
▁מייצגים	-9755
▁המחויבות	-9756
▁10%	-9757
▁לתג	-9758
▁מקצ	-9759
ובילה	-9760
▁דוכן	-9761
▁ליכוד	-9762
▁מצפון	-9763
▁ברצועת	-9764
▁הקבוצה	-9765
▁חסינות	-9766
▁תמשיכו	-9767
▁מתביישים	-9768
גדיה	-9769
▁בשיח	-9770
▁לפטר	-9771
▁זכאות	-9772
▁מכוון	-9773
▁חוט	-9774
▁לכלא	-9775
▁ילדינו	-9776
▁בניסיון	-9777
▁ויכוחים	-9778
▁מרק	-9779
▁תגובה	-9780
▁תתחיל	-9781
▁ובעזרת	-9782
▁שנקבעו	-9783
▁100,000	-9784
▁המיעוטים	-9785
הר	-9786
דמו	-9787
יכף	-9788
▁עג	-9789
טרוא	-9790
▁מחס	-9791
שלושה	-9792
▁2020	-9793
▁הקודש	-9794
▁להפחית	-9795
▁רגישות	-9796
▁האמצעים	-9797
כא	-9798
בדקו	-9799
▁נעשתה	-9800
מולה	-9801
▁5,000	-9802
▁הקטנה	-9803
▁כשהיה	-9804
▁לתלמידים	-9805
דאי	-9806
▁מבע	-9807
וכרים	-9808
▁שידע	-9809
▁אורנה	-9810
▁גואטה	-9811
▁שבעיני	-9812
מקת	-9813
זהרה	-9814
▁אדר	-9815
▁שמר	-9816
שקעות	-9817
▁הקים	-9818
▁ההסדרה	-9819
▁והייתה	-9820
▁העקרונות	-9821
▁הנור	-9822
▁לאחל	-9823
▁נפשי	-9824
▁שמנו	-9825
▁2024.	-9826
▁בחינה	-9827
לאומיות	-9828
▁עמיתיי	-9829
אקצ	-9830
שימות	-9831
▁העתי	-9832
▁חוזה	-9833
▁לחסל	-9834
▁מוצר	-9835
▁מעין	-9836
▁מצבם	-9837
▁מרחב	-9838
▁ששול	-9839
▁יחידת	-9840
▁מספקת	-9841
▁לבטיחות	-9842
▁עבריינים	-9843
ותי	-9844
▁יט	-9845
פעמי	-9846
▁בבת	-9847
▁בנח	-9848
▁במים	-9849
▁ריכו	-9850
אלימות	-9851
▁דיוני	-9852
▁כלכלת	-9853
▁שילמו	-9854
רונוביץ	-9855
▁הסתיימה	-9856
▁לוועדות	-9857
ri	-9858
הי	-9859
לטה	-9860
▁אתר	-9861
▁כיס	-9862
ביבאי	-9863
▁שדיבר	-9864
▁שמחים	-9865
▁ציונות	-9866
▁קשורים	-9867
▁אזרחיים	-9868
▁איכ	-9869
▁וחבריי	-9870
▁הדמוקרט	-9871
פצ	-9872
רכיה	-9873
▁בעי	-9874
▁זול	-9875
▁טסלר	-9876
▁נכות	-9877
▁פקיד	-9878
▁לצעוק	-9879
▁מתנהלת	-9880
▁רוצחים	-9881
▁חטא	-9882
▁אסיר	-9883
▁סוגי	-9884
▁יחסים	-9885
▁נסיעה	-9886
▁שעוסק	-9887
בקה	-9888
ורבן	-9889
ליזם	-9890
▁אום	-9891
▁רומ	-9892
▁יביאו	-9893
▁יעברו	-9894
▁ברביבאי	-9895
▁לרחובות	-9896
▁שנמצאות	-9897
▁אהרונוביץ	-9898
פם	-9899
חנו	-9900
▁ונצ	-9901
▁תוא	-9902
▁2017	-9903
▁ההצה	-9904
▁חסמים	-9905
▁הסטטוס	-9906
▁שעומדת	-9907
▁התחייבות	-9908
▁קואליציוני	-9909
בענו	-9910
▁ביז	-9911
▁ליי	-9912
חינות	-9913
▁לכהן	-9914
▁מהעם	-9915
▁מלבי	-9916
▁שכשא	-9917
▁2,000	-9918
▁מקיים	-9919
▁בקבינט	-9920
▁ההסברה	-9921
▁בחקלאות	-9922
▁הנאומים	-9923
קיף	-9924
▁בדו	-9925
ריכות	-9926
▁רכוש	-9927
▁כותרת	-9928
▁שיניים	-9929
▁איזנקוט	-9930
יטות	-9931
▁אירן	-9932
▁תחול	-9933
▁3,000	-9934
▁תעמוד	-9935
▁הפליטים	-9936
▁פריפריה	-9937
▁רעיונות	-9938
כיל	-9939
▁הנד	-9940
הכנסת	-9941
▁עידית	-9942
וארץ	-9943
וסין	-9944
▁בודק	-9945
▁מעמיק	-9946
▁החופשי	-9947
▁הקשבתי	-9948
▁מסוגלת	-9949
▁סיימנו	-9950
▁צביעות	-9951
▁לגיטימית	-9952
▁אוטובוסים	-9953
-25	-9954
ידוש	-9955
▁ומט	-9956
זונתי	-9957
▁ירוק	-9958
▁פירות	-9959
▁ייכנסו	-9960
▁לעידוד	-9961
▁מייצרים	-9962
▁חסד	-9963
▁ובתי	-9964
▁כאיש	-9965
▁גזענית	-9966
אלפי	-9967
אקצא	-9968
נתית	-9969
▁משתנה	-9970
▁הכבושים	-9971
▁כשח	-9972
▁נפטר	-9973
▁כחודש	-9974
▁שמנסה	-9975
▁תקנון	-9976
▁ההנהגה	-9977
▁וראינו	-9978
▁שמעניין	-9979
▁אביא	-9980
▁דעתך	-9981
▁העיו	-9982
▁לחדש	-9983
▁שהעל	-9984
▁רוצות	-9985
▁מסתכלת	-9986
▁מתאימה	-9987
טוף	-9988
▁מרע	-9989
▁הקהל	-9990
▁נהנה	-9991
▁הבושה	-9992
▁ההבנה	-9993
▁הנוסח	-9994
▁זוארץ	-9995
▁שנקראת	-9996
▁65	-9997
▁לנד	-9998
▁נמשך	-9999
▁בעצמם	-10000
▁וברור	-10001
▁עמדתו	-10002
▁האמונה	-10003
▁הסיכון	-10004
▁חקלאות	-10005
▁לסוגיה	-10006
▁נוהגים	-10007
ילן	-10008
▁בזק	-10009
▁בער	-10010
פיטלי	-10011
▁הפרה	-10012
▁יענה	-10013
▁לשימוש	-10014
הא	-10015
יחה	-10016
▁ותת	-10017
מלאים	-10018
▁אחיות	-10019
▁בעשור	-10020
▁מוטלת	-10021
▁מכניסים	-10022
▁הפרלמנטרית	-10023
רגם	-10024
טריה	-10025
▁לאת	-10026
▁מפת	-10027
▁שלד	-10028
ובעים	-10029
ממשלה	-10030
▁אשתו	-10031
▁בעין	-10032
▁לשוב	-10033
▁גירוש	-10034
▁ובנות	-10035
▁ובתוך	-10036
▁שכונה	-10037
▁להחלטה	-10038
ואת	-10039
▁בנצרת	-10040
▁קהילה	-10041
▁שלילי	-10042
▁שרואה	-10043
▁בסיפור	-10044
▁מארצות	-10045
▁קודמות	-10046
▁הפרטיות	-10047
▁סוציאליים	-10048
▁בגדול	-10049
▁הוצאת	-10050
▁וקריאה	-10051
▁נכנסתי	-10052
חדות	-10053
כתבה	-10054
▁בגוף	-10055
▁הערך	-10056
▁חלקה	-10057
▁נגדם	-10058
▁צפוי	-10059
▁שמיר	-10060
▁נעשית	-10061
▁השיקום	-10062
כונן	-10063
▁הרוצ	-10064
ירויות	-10065
קטטורה	-10066
▁המרחב	-10067
▁מניעה	-10068
▁שפוגע	-10069
▁הגבולות	-10070
▁השאילתא	-10071
צול	-10072
▁כשש	-10073
▁בברכה	-10074
▁מתוכם	-10075
▁בסיסית	-10076
▁יכולנו	-10077
▁מקימים	-10078
▁לחלופין	-10079
▁שקיבלתי	-10080
▁התמודדות	-10081
רתעה	-10082
▁נשת	-10083
▁המנדט	-10084
▁להגנה	-10085
▁האמיתיים	-10086
▁n	-10087
▁המוח	-10088
▁נהנים	-10089
▁פרנסה	-10090
▁לשולחן	-10091
▁שדיברו	-10092
לקת	-10093
לחנו	-10094
▁לשקר	-10095
▁עשור	-10096
▁המאוח	-10097
▁הקיום	-10098
▁העוסקים	-10099
▁השיקולים	-10100
▁42	-10101
עתיים	-10102
▁ולשר	-10103
▁לשכר	-10104
▁עילת	-10105
▁באמצעים	-10106
▁פסיק	-10107
▁ולמנוע	-10108
▁חובתנו	-10109
▁אסת	-10110
▁גילו	-10111
▁למשת	-10112
▁הנביא	-10113
▁הריסה	-10114
▁לקלוט	-10115
▁מגלים	-10116
▁מהרגע	-10117
▁מתנחלים	-10118
▁אלקטרונית	-10119
▁קץ	-10120
▁הנג	-10121
▁יופ	-10122
▁סמך	-10123
▁שוט	-10124
▁שכמו	-10125
▁שנתן	-10126
▁העמוק	-10127
▁עשייה	-10128
▁קשורה	-10129
▁מצלמות	-10130
▁אידיאולוגיה	-10131
והריים	-10132
▁מעטים	-10133
▁מחויבת	-10134
▁ההליכים	-10135
▁לשנתיים	-10136
▁מהתקציב	-10137
לע	-10138
בלה	-10139
▁תו	-10140
▁גורל	-10141
▁והכל	-10142
▁מזעזע	-10143
▁מציין	-10144
▁הטלפון	-10145
▁המסדרת	-10146
▁להסתיר	-10147
▁עוזרים	-10148
▁הריבונות	-10149
איות	-10150
פסים	-10151
▁מיט	-10152
חלטות	-10153
▁ביני	-10154
▁קורס	-10155
▁הריסת	-10156
▁מליאת	-10157
▁עזריה	-10158
פריפריה	-10159
▁בהחלטת	-10160
▁בתופעה	-10161
▁שאמורה	-10162
▁המדינית	-10163
▁לאומיים	-10164
רבו	-10165
▁פאר	-10166
ברכים	-10167
▁לעגן	-10168
▁מעגל	-10169
▁ההיסטורית	-10170
נוני	-10171
פיקוח	-10172
▁הפלא	-10173
▁משרה	-10174
▁נפלה	-10175
▁תענה	-10176
▁במחוז	-10177
▁השותפים	-10178
▁שעוסקים	-10179
תקווה	-10180
▁ביתו	-10181
▁ברגל	-10182
▁לייע	-10183
▁בסוריה	-10184
▁הידיים	-10185
▁שאמורים	-10186
מצה	-10187
▁רוש	-10188
▁שזכ	-10189
▁מסיעת	-10190
▁ניגוד	-10191
▁עולמי	-10192
אמים	-10193
▁דיו	-10194
▁ורי	-10195
▁חני	-10196
▁מסי	-10197
▁תקצוב	-10198
▁ולנסות	-10199
▁להשמיד	-10200
▁בישיבות	-10201
▁רפואיים	-10202
▁משפחותיהם	-10203
ing	-10204
רתו	-10205
▁of	-10206
▁החלת	-10207
▁מונה	-10208
▁נכבד	-10209
▁הארוך	-10210
▁העדפה	-10211
▁התפקידים	-10212
▁שהקואליציה	-10213
יהו	-10214
חרדים	-10215
▁והשת	-10216
▁שינו	-10217
▁הבדיקה	-10218
▁המימון	-10219
▁רלוונט	-10220
▁וילף	-10221
▁שמתי	-10222
▁ביושר	-10223
▁הדדית	-10224
▁המתאי	-10225
▁הקלות	-10226
▁ויהיו	-10227
▁כוונת	-10228
▁האקלים	-10229
▁התגובה	-10230
▁ורואים	-10231
▁תרומות	-10232
▁דנו	-10233
ורבים	-10234
פיפות	-10235
▁כחוק	-10236
▁הרפור	-10237
▁מחלות	-10238
▁רביבו	-10239
▁בקידום	-10240
▁תהיינה	-10241
▁במחלוקת	-10242
▁פיצויים	-10243
לר	-10244
ובלות	-10245
▁מלוא	-10246
▁הנחות	-10247
▁למהלך	-10248
▁מבורך	-10249
▁הסכימו	-10250
▁תאגידי	-10251
סתם	-10252
▁ביס	-10253
▁ביוז	-10254
▁כשהת	-10255
▁לחנך	-10256
▁ובלבד	-10257
▁יציאה	-10258
▁השליטה	-10259
▁שפורסם	-10260
מותו	-10261
פוצות	-10262
▁אביר	-10263
▁נחשב	-10264
▁סעדה	-10265
▁עוטף	-10266
▁להקפיד	-10267
▁לרשימת	-10268
▁שחייבים	-10269
דמית	-10270
▁גדר	-10271
▁בוטה	-10272
▁במצרים	-10273
▁האחדות	-10274
▁להירשם	-10275
-24	-10276
מיכת	-10277
▁150	-10278
▁דגש	-10279
▁להנ	-10280
▁בואי	-10281
▁בכדי	-10282
▁במרס	-10283
▁המפכ	-10284
▁מישר	-10285
▁ולקדם	-10286
▁באמונה	-10287
▁הליכים	-10288
ציאת	-10289
רעין	-10290
▁הבור	-10291
▁ככלל	-10292
▁לרצח	-10293
▁ונעשה	-10294
▁מדאיג	-10295
▁מפתיע	-10296
▁תאריך	-10297
▁סוגרים	-10298
▁מכובדיי	-10299
▁הביורוקרטיה	-10300
סע	-10301
בני	-10302
▁באף	-10303
▁ודר	-10304
▁יפגע	-10305
▁שלטו	-10306
▁וחוסר	-10307
▁רצועת	-10308
▁מסכנים	-10309
וטו	-10310
▁שייש	-10311
▁עיוות	-10312
▁מתווכח	-10313
▁הקיימות	-10314
ידך	-10315
געתי	-10316
ורכת	-10317
פרנצ	-10318
▁דרוז	-10319
▁היטל	-10320
נהיגות	-10321
▁בפרשת	-10322
▁ופשוט	-10323
▁עושות	-10324
▁מלביצקי	-10325
-60	-10326
טיים	-10327
▁שנג	-10328
▁צבאית	-10329
▁במישור	-10330
▁להכשיר	-10331
▁שאחראי	-10332
▁מוסיפים	-10333
מנט	-10334
ספור	-10335
▁שתד	-10336
▁במלא	-10337
▁נכתב	-10338
נתונים	-10339
▁בעשרות	-10340
▁בשכונות	-10341
▁שהאנשים	-10342
מוע	-10343
לושת	-10344
▁הקשור	-10345
▁יושבי	-10346
▁מקדמת	-10347
▁תומכי	-10348
▁ליועצת	-10349
▁55	-10350
חזים	-10351
▁נעלה	-10352
▁ומדבר	-10353
▁ונשים	-10354
▁ובאופן	-10355
▁חריגים	-10356
ופטים	-10357
טופות	-10358
▁ודרך	-10359
▁ומכאן	-10360
▁מעמדה	-10361
▁פונים	-10362
▁התביעה	-10363
▁מקצועיות	-10364
יצר	-10365
שובת	-10366
▁מגמה	-10367
▁מחפש	-10368
▁אליהן	-10369
▁הוגנת	-10370
▁הנוסף	-10371
▁התמונות	-10372
גוש	-10373
נאות	-10374
▁דרי	-10375
▁החת	-10376
▁משו	-10377
▁שבן	-10378
בחנים	-10379
▁יעיל	-10380
▁המוות	-10381
▁לברוח	-10382
▁המעסיקים	-10383
▁מיליארדי	-10384
פד	-10385
יצוג	-10386
רחים	-10387
▁שחת	-10388
▁העביר	-10389
▁חרבות	-10390
▁מהצעת	-10391
▁פגישה	-10392
▁צעירה	-10393
מעי	-10394
▁חלקן	-10395
▁יראו	-10396
▁נבנה	-10397
▁נותר	-10398
▁נשכח	-10399
▁האדום	-10400
▁החלום	-10401
▁מוריד	-10402
▁הלחימה	-10403
▁התכוון	-10404
▁טעויות	-10405
בקים	-10406
▁ובאי	-10407
▁כרמל	-10408
▁ובפרט	-10409
▁לרפואה	-10410
אושר	-10411
צלמות	-10412
▁לסמוך	-10413
▁עמותת	-10414
▁המקורי	-10415
▁שאמרנו	-10416
▁שנפגעו	-10417
-70	-10418
▁בדקה	-10419
▁תורם	-10420
▁בטווח	-10421
▁לעובד	-10422
▁העמדות	-10423
▁מהמגזר	-10424
▁לצעירים	-10425
▁תשלומים	-10426
▁ענה	-10427
▁הסתם	-10428
▁חלשים	-10429
▁יאללה	-10430
▁יחידה	-10431
▁באוויר	-10432
▁התעללות	-10433
וצעת	-10434
יתאר	-10435
▁בגל	-10436
▁הרגל	-10437
▁והופ	-10438
▁עמוד	-10439
▁לזרוק	-10440
▁רישוי	-10441
▁במפלגה	-10442
▁היועצים	-10443
▁אלטרנטיבה	-10444
ארד	-10445
יכה	-10446
מדתי	-10447
בילות	-10448
▁תלכו	-10449
▁הוביל	-10450
▁תביעה	-10451
▁אורחים	-10452
▁במשמרת	-10453
▁חיובית	-10454
▁קרויזר	-10455
▁התקציבית	-10456
▁קצה	-10457
▁שנק	-10458
▁הפיז	-10459
▁חלום	-10460
▁אנרגיה	-10461
כף	-10462
ומטר	-10463
▁נכי	-10464
ומדות	-10465
ניעות	-10466
▁אצבע	-10467
▁לתחום	-10468
▁ולהגיע	-10469
▁להחלטת	-10470
▁הסוכנות	-10471
.)	-10472
וציאו	-10473
רוכים	-10474
▁שבעד	-10475
▁שבמשך	-10476
▁לניצולי	-10477
▁משכורות	-10478
▁53	-10479
▁בקיץ	-10480
▁הפיר	-10481
▁ולהג	-10482
▁נפאע	-10483
▁בעידן	-10484
▁יצליח	-10485
▁ביהדות	-10486
▁להתגבר	-10487
▁לשמחתי	-10488
▁הביטחוניים	-10489
ופם	-10490
▁הלחץ	-10491
▁החולה	-10492
▁לצרכן	-10493
▁שיקלי	-10494
▁שתוכל	-10495
▁ולפעול	-10496
▁לאחרים	-10497
▁לביטול	-10498
▁לשחרור	-10499
▁תעודות	-10500
יגור	-10501
▁הסבל	-10502
▁ולמי	-10503
▁נפשם	-10504
▁הנהלת	-10505
▁כרגיל	-10506
▁לגנות	-10507
▁עבורם	-10508
▁וצריכים	-10509
ליג	-10510
▁שאז	-10511
▁מסכן	-10512
▁שההס	-10513
▁שלפיו	-10514
▁כוונות	-10515
▁לתהליך	-10516
▁רגולציה	-10517
▁אוטומטית	-10518
▁הפתרונות	-10519
בדות	-10520
▁בתה	-10521
ישובי	-10522
▁סאלח	-10523
▁אחינו	-10524
▁נכנסה	-10525
▁ההוראות	-10526
▁להרוויח	-10527
▁האתיופית	-10528
▁ונק	-10529
▁נחר	-10530
▁המוז	-10531
▁עסקת	-10532
▁יסודי	-10533
▁מודיעין	-10534
▁אוכלוסיית	-10535
עתים	-10536
▁דיני	-10537
▁הפשו	-10538
▁תקרא	-10539
▁ליותר	-10540
▁לעדכן	-10541
▁לעקוב	-10542
▁שברגע	-10543
▁הביצוע	-10544
▁שהגענו	-10545
▁באינטרנט	-10546
▁האסלאמית	-10547
▁בהתנחלויות	-10548
▁שבל	-10549
▁דמים	-10550
▁ההתי	-10551
▁החיו	-10552
▁ולהכ	-10553
▁חפים	-10554
פיינים	-10555
▁ידיעה	-10556
▁לגמור	-10557
▁למעגל	-10558
▁למרבה	-10559
▁מסגרות	-10560
כלא	-10561
▁מתר	-10562
▁מאור	-10563
▁תוהה	-10564
▁בנוכח	-10565
▁ייקום	-10566
▁למטרה	-10567
▁מיסוי	-10568
▁נערים	-10569
▁שביום	-10570
▁יתקיים	-10571
le	-10572
▁5.	-10573
▁כלא	-10574
▁שהעם	-10575
▁תקום	-10576
▁בהקדם	-10577
▁דירוג	-10578
▁תבואו	-10579
▁תועבר	-10580
▁התיקים	-10581
גלגל	-10582
יאים	-10583
▁שלע	-10584
יוונים	-10585
▁מגילת	-10586
▁נסיבות	-10587
▁פלסטין	-10588
▁ושב	-10589
ורידו	-10590
▁בגדר	-10591
▁בקנה	-10592
▁לדור	-10593
▁מילר	-10594
▁המבצעת	-10595
▁להתנצל	-10596
ובלי	-10597
▁ולר	-10598
▁מלי	-10599
▁נחת	-10600
▁הביק	-10601
▁הבנת	-10602
▁הצעד	-10603
▁מספק	-10604
▁פשרה	-10605
▁אצביע	-10606
▁הגדרת	-10607
▁ואמרנו	-10608
▁לאינטר	-10609
▁המקורית	-10610
ra	-10611
שיפה	-10612
▁דורשת	-10613
▁זיהוי	-10614
▁רשיון	-10615
▁מישרקי	-10616
יראן	-10617
▁ומור	-10618
▁ירצו	-10619
▁להקצ	-10620
▁מאגר	-10621
▁מכון	-10622
▁צורה	-10623
▁במשכן	-10624
▁גילוי	-10625
▁חווים	-10626
▁משפיע	-10627
▁איכשהו	-10628
▁שהחברה	-10629
▁האיומים	-10630
▁התפתחות	-10631
▁לנושאים	-10632
▁מתנדבים	-10633
ואן	-10634
▁כצ	-10635
וחלת	-10636
▁ונס	-10637
▁נאלץ	-10638
▁המורה	-10639
▁מלפני	-10640
▁שדרות	-10641
▁שהיית	-10642
▁התחתונה	-10643
▁מחוקקים	-10644
▁תתביישו	-10645
נב	-10646
שיאת	-10647
טחונית	-10648
▁באות	-10649
▁עבדו	-10650
▁אשכנז	-10651
▁ערכית	-10652
▁המאמצים	-10653
▁הבת	-10654
▁קבר	-10655
וקטור	-10656
▁לעזה	-10657
נוניים	-10658
▁האתגר	-10659
▁וודאי	-10660
▁כשלעצ	-10661
▁התקנים	-10662
▁מינהלי	-10663
▁דיבורים	-10664
דרג	-10665
ובדן	-10666
שמונה	-10667
▁אופק	-10668
▁לגבש	-10669
▁יוחנן	-10670
▁שנושא	-10671
בטאויות	-10672
▁האזורית	-10673
▁הבסיסיים	-10674
▁ההשתתפות	-10675
▁הידע	-10676
▁בארבע	-10677
▁גזעני	-10678
▁חלשות	-10679
▁יחיאל	-10680
▁מכשיר	-10681
▁המפגינים	-10682
▁לגיטימציה	-10683
סיד	-10684
טיות	-10685
▁שתצ	-10686
ורייה	-10687
▁שווא	-10688
▁במכרז	-10689
▁החזרת	-10690
▁משלמת	-10691
▁נהיגה	-10692
▁שייתן	-10693
▁הזכרתי	-10694
▁ולמעשה	-10695
▁שמוביל	-10696
▁שמבקשים	-10697
שמש	-10698
▁הזע	-10699
▁לחו	-10700
▁אופטי	-10701
▁בסכום	-10702
▁הקימו	-10703
▁פיצול	-10704
▁קונים	-10705
▁להקדיש	-10706
▁שהולכת	-10707
הזוג	-10708
▁הטלת	-10709
▁והמח	-10710
▁ותהיה	-10711
▁לראשי	-10712
▁קריטי	-10713
כולים	-10714
▁שיחה	-10715
▁המחשבה	-10716
▁הקיצוץ	-10717
▁מהותית	-10718
▁משחקים	-10719
▁שהדיון	-10720
נקל	-10721
▁בוז	-10722
▁משלי	-10723
▁עודף	-10724
▁שכמעט	-10725
▁ההטבות	-10726
▁אכרם	-10727
▁מסכם	-10728
▁בנשים	-10729
▁בעוטף	-10730
▁שמערכת	-10731
▁ההתייחסות	-10732
עק	-10733
יגים	-10734
ניית	-10735
שטיין	-10736
▁יכהן	-10737
▁לאבד	-10738
▁המגמה	-10739
▁הקצבה	-10740
▁מודים	-10741
▁תנועות	-10742
▁שלומדים	-10743
מיץ	-10744
▁המסחר	-10745
▁ואותו	-10746
▁ורואה	-10747
▁אנטישמיות	-10748
אולה	-10749
טרון	-10750
מעשה	-10751
▁בחל	-10752
▁בשיא	-10753
▁הגון	-10754
▁ואשר	-10755
▁למנכ	-10756
▁שהוש	-10757
▁ולהשת	-10758
▁לפטור	-10759
▁לתכנן	-10760
▁מקומם	-10761
▁תפסיק	-10762
▁בסביבה	-10763
▁ברורות	-10764
▁בתוספת	-10765
▁שדוא	-10766
▁לימים	-10767
▁מאשים	-10768
▁עבירת	-10769
▁ראיות	-10770
עיית	-10771
▁ורע	-10772
קטיבי	-10773
▁הכלי	-10774
▁הנראה	-10775
▁הקבלן	-10776
▁שנינו	-10777
▁מנהיגי	-10778
▁קהילות	-10779
וגל	-10780
פיץ	-10781
▁ולבקש	-10782
▁ילדות	-10783
▁לטעמי	-10784
▁לילות	-10785
▁שאושר	-10786
▁שמספר	-10787
▁טוענים	-10788
▁עבודתו	-10789
▁בסוגיות	-10790
▁ההתנהגות	-10791
▁ההתמודדות	-10792
לפי	-10793
בייק	-10794
▁הענק	-10795
▁לעול	-10796
▁נסבל	-10797
▁פוסט	-10798
▁ורבות	-10799
▁לשרוד	-10800
▁מומחה	-10801
▁נעמוד	-10802
▁זיכרון	-10803
▁סיג	-10804
▁החובות	-10805
▁הפרטיים	-10806
▁מעסיקים	-10807
▁וחברותיי	-10808
דיף	-10809
נבא	-10810
יקאי	-10811
קיום	-10812
▁חלש	-10813
▁בחמש	-10814
▁הדקה	-10815
▁השקפת	-10816
▁האישור	-10817
▁הנאצים	-10818
▁קיצוניים	-10819
שיבי	-10820
▁היקרה	-10821
▁מתקנת	-10822
▁העליתי	-10823
▁וכשאני	-10824
▁חמורות	-10825
▁אוטובוס	-10826
צתי	-10827
טרופ	-10828
ומנים	-10829
▁וקשה	-10830
▁כשנה	-10831
▁שנרצ	-10832
▁גאווה	-10833
▁ההערה	-10834
▁הצהרת	-10835
▁המינוי	-10836
▁מיעוטים	-10837
▁קיצונית	-10838
בחון	-10839
נכים	-10840
▁הערכ	-10841
▁אבדוק	-10842
▁מיטות	-10843
▁מסתובב	-10844
▁העיתונות	-10845
▁is	-10846
▁תקן	-10847
▁ללוח	-10848
▁שישב	-10849
▁תרצו	-10850
▁מעוות	-10851
▁מתקדם	-10852
▁פסולת	-10853
▁בניהול	-10854
▁ההפגנה	-10855
▁מוועדת	-10856
▁אזרחיות	-10857
יקנה	-10858
▁נקי	-10859
▁החלי	-10860
▁נהוג	-10861
▁אוהבת	-10862
▁לסבול	-10863
▁שותפה	-10864
▁הגבלות	-10865
▁הפרישה	-10866
מאוד	-10867
▁יוש	-10868
רושים	-10869
▁יחליט	-10870
▁מייצר	-10871
▁מצבים	-10872
▁שמעתם	-10873
▁תצביע	-10874
▁הכפרים	-10875
▁יצביעו	-10876
▁מאשרים	-10877
▁מעבירה	-10878
▁ניסינו	-10879
▁התעבורה	-10880
▁תינוקות	-10881
בסס	-10882
▁קוו	-10883
לולים	-10884
▁ובנו	-10885
▁הנחיה	-10886
▁העלו	-10887
▁ושות	-10888
▁מלמד	-10889
▁הרווח	-10890
▁מפורט	-10891
▁נקבעו	-10892
▁קבענו	-10893
▁הבשורה	-10894
▁במשפחות	-10895
▁37	-10896
פולה	-10897
▁רמה	-10898
▁שעוס	-10899
▁הבנים	-10900
▁השלמת	-10901
▁ופחות	-10902
▁להעיד	-10903
▁סוציו	-10904
▁צווים	-10905
תיישבים	-10906
▁לתרבות	-10907
וקן	-10908
▁64	-10909
ילתי	-10910
שפוז	-10911
פגעות	-10912
▁לרגל	-10913
▁שטרם	-10914
ירונית	-10915
▁הספיק	-10916
▁ובלתי	-10917
▁נוגעת	-10918
▁במועצה	-10919
▁ובהתאם	-10920
▁ולתמיד	-10921
▁ההפגנות	-10922
▁הקצבאות	-10923
פשו	-10924
קתם	-10925
ואיות	-10926
▁בדין	-10927
▁מסייע	-10928
▁50,000	-10929
▁הורסים	-10930
▁החטיבה	-10931
▁לתמיכה	-10932
▁מועצות	-10933
▁מוסלמים	-10934
▁מתנהלים	-10935
▁התכוונתי	-10936
ניעה	-10937
▁ופי	-10938
בחרים	-10939
▁כסגן	-10940
▁מהדו	-10941
▁הינני	-10942
▁התחום	-10943
▁מבחוץ	-10944
עס	-10945
עלת	-10946
קורא	-10947
▁צבע	-10948
▁שיכ	-10949
ישנות	-10950
נחלות	-10951
תקופה	-10952
▁מולא	-10953
▁הנוהל	-10954
▁להסית	-10955
▁סוכות	-10956
▁קווים	-10957
▁להורות	-10958
▁להתחשב	-10959
▁רציניים	-10960
▁חומש	-10961
▁הקמנו	-10962
▁השגרי	-10963
▁מימין	-10964
▁נתמוך	-10965
▁סבירה	-10966
▁בשבילך	-10967
▁השחרור	-10968
▁להתפרנס	-10969
▁רבנו	-10970
▁הסביב	-10971
▁הצעתו	-10972
▁החשבון	-10973
▁העיריות	-10974
קוב	-10975
▁ביע	-10976
▁זקן	-10977
פלומט	-10978
▁אנסה	-10979
▁יעדים	-10980
▁למיטב	-10981
▁תוכלו	-10982
▁ללימודים	-10983
▁מעניינים	-10984
▁במט	-10985
▁בצרפת	-10986
▁מליאה	-10987
כלות	-10988
▁משע	-10989
▁קהל	-10990
כנזים	-10991
שירים	-10992
▁הבעת	-10993
▁לאיש	-10994
▁מעסיק	-10995
▁אובייק	-10996
▁העתיקה	-10997
▁ולהבין	-10998
▁להיערך	-10999
▁המזכירה	-11000
▁נישואים	-11001
▁נזכ	-11002
▁שכאן	-11003
▁שלפי	-11004
יועדים	-11005
▁מקבלי	-11006
▁ומשמעות	-11007
▁הסל	-11008
▁2012	-11009
▁אללה	-11010
▁בחסות	-11011
▁למשבר	-11012
▁מחלקת	-11013
▁העולמית	-11014
▁במקצועות	-11015
וארת	-11016
▁גמר	-11017
▁הבק	-11018
▁מרת	-11019
נהיגה	-11020
▁מגור	-11021
▁המודל	-11022
▁ולמען	-11023
▁מחודש	-11024
▁מיגון	-11025
▁אדירים	-11026
▁יישובי	-11027
-20%	-11028
שומת	-11029
▁30%	-11030
▁ובפ	-11031
▁יבינו	-11032
▁מועמד	-11033
▁שתיקה	-11034
▁סיעודי	-11035
ציון	-11036
▁במרץ	-11037
▁חולי	-11038
▁לשחק	-11039
▁הליבה	-11040
▁המכרז	-11041
▁נגדנו	-11042
▁סביבה	-11043
תייעלות	-11044
▁בתשלום	-11045
▁טיפולי	-11046
▁תלויים	-11047
פגע	-11048
▁זהה	-11049
▁מסך	-11050
▁2014	-11051
▁מחרי	-11052
▁הוספת	-11053
▁הכדור	-11054
▁נאמרו	-11055
▁ערבות	-11056
▁שעשתה	-11057
▁העבירו	-11058
▁להרגיע	-11059
▁הלוואות	-11060
שיר	-11061
▁בנשק	-11062
▁נסגר	-11063
▁עוצר	-11064
סטודנטים	-11065
▁המסקנות	-11066
▁מחלוקות	-11067
רני	-11068
צריך	-11069
▁הכח	-11070
▁לגר	-11071
▁2013	-11072
▁והאמת	-11073
▁יעמדו	-11074
▁תבדוק	-11075
▁בתקנון	-11076
▁לידיעת	-11077
▁מענקים	-11078
▁סכומים	-11079
הק	-11080
אנס	-11081
▁75	-11082
חתנו	-11083
לאוף	-11084
▁נוק	-11085
▁הצגת	-11086
▁מפתח	-11087
▁פרסם	-11088
▁תחיל	-11089
▁יהפוך	-11090
▁בבעיות	-11091
שרתי	-11092
▁דלת	-11093
▁אונס	-11094
▁צחוק	-11095
▁מימוש	-11096
▁נראים	-11097
▁סוריה	-11098
▁מחקרים	-11099
▁במערכות	-11100
▁מהעניין	-11101
ריזה	-11102
▁בבל	-11103
▁מדד	-11104
▁מבתי	-11105
▁תרשה	-11106
▁ידועה	-11107
▁אזורית	-11108
▁במחירי	-11109
▁הספרים	-11110
▁והילדים	-11111
▁ההפק	-11112
▁החלב	-11113
▁מיטב	-11114
▁הסלול	-11115
▁בזמנים	-11116
▁ההפיכה	-11117
▁להפריד	-11118
▁להשכרה	-11119
▁שהוביל	-11120
▁שלמרות	-11121
חור	-11122
▁מגל	-11123
▁למדו	-11124
▁הקופה	-11125
▁מבקשי	-11126
▁מחוסר	-11127
▁עברתי	-11128
▁מכובדת	-11129
▁הפועלים	-11130
תג	-11131
▁יתע	-11132
▁אדרי	-11133
▁מעיד	-11134
▁ניתנת	-11135
▁שרבים	-11136
▁ספציפי	-11137
▁מוותרים	-11138
▁פוטנציאל	-11139
-194	-11140
▁נתת	-11141
▁מחלי	-11142
▁במחנה	-11143
▁העברה	-11144
▁וכבוד	-11145
▁חבורה	-11146
▁צורכי	-11147
▁תלויה	-11148
▁הסכמתי	-11149
▁להתקבל	-11150
▁לקהילה	-11151
▁מיותרת	-11152
אמת	-11153
פתם	-11154
דברות	-11155
▁נופל	-11156
▁הולדת	-11157
▁לחשוף	-11158
▁מתקדמת	-11159
▁מבחינתנו	-11160
נץ	-11161
זבו	-11162
יומי	-11163
▁לאוצר	-11164
▁ערביי	-11165
▁שייכת	-11166
▁חוששים	-11167
פוק	-11168
עימה	-11169
▁בוו	-11170
▁שפי	-11171
▁ששמענו	-11172
▁היכולות	-11173
זבז	-11174
▁ולמצ	-11175
▁חגיג	-11176
▁מהשר	-11177
▁נדאג	-11178
▁בדומה	-11179
▁רשמית	-11180
נעת	-11181
נועת	-11182
▁נאות	-11183
▁תקלה	-11184
▁2016.	-11185
▁בתוכה	-11186
▁נפשית	-11187
▁האבסורד	-11188
▁600	-11189
▁וכת	-11190
▁קפה	-11191
▁מהמח	-11192
▁מעזה	-11193
▁נעצר	-11194
▁המבנה	-11195
▁ילמדו	-11196
▁לנכים	-11197
▁שיעשו	-11198
▁שלשום	-11199
▁אשקלון	-11200
▁בהיעדר	-11201
▁המעסיק	-11202
▁ויגידו	-11203
▁חילופי	-11204
▁נוכחים	-11205
▁פרקליט	-11206
▁צועקים	-11207
▁מינהליים	-11208
מוז	-11209
בחרו	-11210
נדון	-11211
▁חשד	-11212
▁מתנ	-11213
וליים	-11214
▁הירי	-11215
▁מחדל	-11216
▁המאמץ	-11217
▁השתמש	-11218
▁פקידי	-11219
▁בידינו	-11220
▁שניתנה	-11221
▁תפקידם	-11222
▁וסרלאוף	-11223
▁מובטלים	-11224
▁האנטישמיות	-11225
▁סיט	-11226
▁שהט	-11227
▁גברת	-11228
▁לאלו	-11229
▁החילו	-11230
▁לערוך	-11231
▁שנשים	-11232
▁תזכיר	-11233
▁לעלייה	-11234
▁מועמדים	-11235
▁6,	-11236
▁40%	-11237
▁נדו	-11238
גידול	-11239
▁וככל	-11240
▁משתי	-11241
▁סכסוך	-11242
▁בשבילי	-11243
▁ולהמשיך	-11244
▁ולהצביע	-11245
▁לנתניהו	-11246
▁למט	-11247
▁אמות	-11248
▁קבועה	-11249
▁בדיוני	-11250
▁הסיעוד	-11251
▁שהביאו	-11252
▁המנהיגות	-11253
▁מירושלים	-11254
טען	-11255
כפת	-11256
▁וזהו	-11257
▁לרוץ	-11258
▁מפעם	-11259
▁משקר	-11260
▁סיים	-11261
▁בגובה	-11262
▁עמותה	-11263
▁תיאור	-11264
▁בשכונת	-11265
▁תורמים	-11266
▁הידברות	-11267
בטא	-11268
מוני	-11269
בירור	-11270
▁וראו	-11271
▁יאמר	-11272
▁נציב	-11273
▁רבני	-11274
▁שנדע	-11275
▁אבינו	-11276
▁מטפלת	-11277
▁משרתי	-11278
▁קרדיט	-11279
▁באזורי	-11280
טפו	-11281
▁כג	-11282
כתית	-11283
▁והו	-11284
טריון	-11285
▁אפרט	-11286
▁באופ	-11287
▁בקרה	-11288
▁לכיס	-11289
▁נעלם	-11290
▁בנינו	-11291
▁האולם	-11292
▁ההנחה	-11293
▁האמורה	-11294
▁מונעים	-11295
▁חרב	-11296
▁ליר	-11297
▁מפג	-11298
▁כאלו	-11299
▁לבנת	-11300
▁נעשים	-11301
▁שהגיעה	-11302
גדת	-11303
צמת	-11304
▁הנמו	-11305
▁שהמח	-11306
▁ביקשת	-11307
▁להצליח	-11308
▁אופניים	-11309
▁שיודעים	-11310
▁בשבועיים	-11311
וננו	-11312
גועים	-11313
לבליט	-11314
▁הוקם	-11315
▁החשב	-11316
▁ומתי	-11317
▁לכנס	-11318
▁ציוד	-11319
▁תיכף	-11320
▁להכיל	-11321
▁מברכת	-11322
▁שמבקש	-11323
▁בשדרות	-11324
▁תקופות	-11325
▁האוכלוסין	-11326
מלצה	-11327
▁בזב	-11328
▁כוע	-11329
▁בפרי	-11330
▁דרכה	-11331
▁המכתב	-11332
▁לבעיה	-11333
▁לנדאו	-11334
▁לתבוע	-11335
טנדרטים	-11336
▁נאמנות	-11337
▁העלויות	-11338
▁הרגליים	-11339
▁שקיימים	-11340
אלץ	-11341
תיפא	-11342
▁חוו	-11343
▁והתח	-11344
▁חמלה	-11345
▁הלכנו	-11346
▁וחלקם	-11347
▁שביקש	-11348
▁הגידול	-11349
▁ומדינה	-11350
▁להיטיב	-11351
▁מברכים	-11352
▁עיקרון	-11353
ion	-11354
פוז	-11355
האדם	-11356
▁האבא	-11357
▁יסכם	-11358
▁איבדו	-11359
▁המולדת	-11360
▁ולהפוך	-11361
▁מלמדים	-11362
▁לקשישים	-11363
▁מחזיקים	-11364
בורת	-11365
הארץ	-11366
▁לוד	-11367
יבציה	-11368
▁הגעת	-11369
▁כפוף	-11370
▁נאוה	-11371
▁אילוז	-11372
▁בזירה	-11373
▁הרתעה	-11374
▁מראים	-11375
▁שיוצא	-11376
▁המאפשר	-11377
▁שייכים	-11378
פאת	-11379
עתיד	-11380
▁נבוא	-11381
▁בפניו	-11382
▁והצעת	-11383
▁לדברי	-11384
▁שידעו	-11385
▁הוציאו	-11386
▁לחקירה	-11387
▁מבפנים	-11388
הה	-11389
ושים	-11390
משרד	-11391
סיפור	-11392
▁גנדי	-11393
פעילות	-11394
▁מכניס	-11395
▁שנבחר	-11396
▁ציונית	-11397
קף	-11398
▁חרם	-11399
▁כעם	-11400
שואין	-11401
▁נפלו	-11402
▁קארה	-11403
▁מסיבה	-11404
▁קורבן	-11405
▁תיאום	-11406
▁שראיתי	-11407
▁אפרטהייד	-11408
יכר	-11409
מציא	-11410
▁החזר	-11411
▁מגדר	-11412
▁בדיקת	-11413
▁שלילת	-11414
▁אפרופו	-11415
▁בביטוח	-11416
▁כותבים	-11417
▁מהעולם	-11418
▁תביעות	-11419
▁המוצרים	-11420
▁הלאומיים	-11421
▁12,	-11422
▁מגר	-11423
נבאום	-11424
▁ברצח	-11425
▁ויום	-11426
▁תראי	-11427
▁יצאנו	-11428
▁סבסוד	-11429
▁סולוד	-11430
▁קראנו	-11431
▁למפלגה	-11432
זרות	-11433
▁בהצ	-11434
ראומה	-11435
▁יקבע	-11436
▁לטוב	-11437
▁פסול	-11438
▁תמצא	-11439
▁הגשנו	-11440
▁התלמיד	-11441
▁בנאומים	-11442
▁האווירה	-11443
צאי	-11444
וגרי	-11445
יומו	-11446
▁18,	-11447
▁עיצ	-11448
▁גיסא	-11449
▁כתבתי	-11450
▁מעולה	-11451
▁שנועד	-11452
▁תגידי	-11453
▁אמריקה	-11454
יצע	-11455
מרא	-11456
שמו	-11457
דיפה	-11458
▁ומעבר	-11459
▁שיוכל	-11460
▁בתוכנו	-11461
▁המחלקה	-11462
▁שמצביע	-11463
▁אסטרטגי	-11464
▁בהחלטות	-11465
▁האנושות	-11466
▁העצמאים	-11467
ייץ	-11468
▁באס	-11469
טינים	-11470
▁אדטו	-11471
▁לברר	-11472
▁נכשל	-11473
חיילים	-11474
▁החוסן	-11475
▁מתאימים	-11476
וחרת	-11477
▁חשוד	-11478
▁המקור	-11479
▁בארגון	-11480
▁בבנייה	-11481
▁עקרוני	-11482
▁קצינים	-11483
▁פרלמנטרי	-11484
▁לפוליטיקה	-11485
חוף	-11486
לכות	-11487
מליץ	-11488
▁ומן	-11489
▁לנא	-11490
ליארד	-11491
▁לפיצ	-11492
▁שאחר	-11493
▁ובטוח	-11494
▁לדובר	-11495
▁קיבוץ	-11496
▁אזורים	-11497
▁האחראי	-11498
▁an	-11499
מיאל	-11500
רטיב	-11501
▁וחד	-11502
▁וכה	-11503
▁להיק	-11504
▁המענק	-11505
▁נגוסה	-11506
▁גבוהות	-11507
▁להכריע	-11508
▁נמוכים	-11509
▁מיותרים	-11510
חקו	-11511
▁0.	-11512
▁הדרג	-11513
▁יראה	-11514
▁מעקב	-11515
▁נדחה	-11516
▁מכירת	-11517
▁רטרוא	-11518
▁המונחת	-11519
▁הסכמות	-11520
▁שבמדינת	-11521
▁62	-11522
גינה	-11523
פללו	-11524
▁מתפק	-11525
▁פטין	-11526
▁שוחר	-11527
▁הטרדה	-11528
▁בשכונה	-11529
▁הדתיים	-11530
▁להתאים	-11531
▁רי	-11532
מוגר	-11533
▁המפה	-11534
▁חתום	-11535
▁לגרש	-11536
▁שילם	-11537
▁תציג	-11538
▁לסיעה	-11539
▁נרשמו	-11540
▁מאבדים	-11541
▁המוסרית	-11542
▁לעצמאים	-11543
▁והטכנולוגיה	-11544
ולא	-11545
▁ככ	-11546
▁ששו	-11547
▁לחמש	-11548
▁אבישי	-11549
▁הרופא	-11550
▁מקומו	-11551
▁נאבקים	-11552
▁בעייתית	-11553
▁הכישלון	-11554
▁השקיפות	-11555
גדה	-11556
דתם	-11557
▁5,	-11558
גבלה	-11559
▁ואה	-11560
▁שתה	-11561
זכירות	-11562
▁מאיים	-11563
▁עיכוב	-11564
▁פנימי	-11565
▁רץ	-11566
▁בדם	-11567
▁מלח	-11568
▁ספי	-11569
▁ציר	-11570
▁2023	-11571
▁דרכי	-11572
▁זכרם	-11573
▁שהוע	-11574
▁אנטיש	-11575
▁ושמאל	-11576
▁ציינו	-11577
▁אופציה	-11578
▁השביתה	-11579
▁השמירה	-11580
▁להרכיב	-11581
▁נגישות	-11582
▁בפרלמנט	-11583
▁הבכירים	-11584
▁למגורים	-11585
▁הכלכליות	-11586
ושפ	-11587
מדאן	-11588
▁בסי	-11589
▁ולט	-11590
▁2016	-11591
▁אשאל	-11592
▁המבקר	-11593
▁חידוש	-11594
▁חקלאי	-11595
▁ניתוח	-11596
▁האדמות	-11597
▁הגרעין	-11598
וכלוסיית	-11599
▁המומחים	-11600
▁מקל	-11601
מוניה	-11602
▁הייח	-11603
▁חותם	-11604
▁לחופ	-11605
▁מחזק	-11606
▁צמוד	-11607
▁שעון	-11608
▁המלצה	-11609
▁ואיזה	-11610
▁נפגעו	-11611
▁המעשים	-11612
▁ואחיות	-11613
▁מחליטה	-11614
▁מרגישה	-11615
▁פקידים	-11616
▁שהבעיה	-11617
▁הדרישות	-11618
▁לגל	-11619
▁ללח	-11620
▁למות	-11621
▁מנגד	-11622
▁שנאת	-11623
▁המנהל	-11624
▁חירות	-11625
▁יתחיל	-11626
▁לשאלת	-11627
▁נבדוק	-11628
▁במימון	-11629
▁בספורט	-11630
▁להשתלט	-11631
▁להתנהג	-11632
▁מעכשיו	-11633
ds	-11634
ממה	-11635
תיהם	-11636
נקורן	-11637
▁אגיע	-11638
▁שיום	-11639
▁יצביע	-11640
▁בתרבות	-11641
▁מקבלות	-11642
▁עבודתה	-11643
▁שוכחים	-11644
▁מתגייסים	-11645
ושך	-11646
בקות	-11647
▁בהש	-11648
▁והור	-11649
▁ידעה	-11650
▁מוקד	-11651
▁שייתנו	-11652
▁שיוצאים	-11653
שנים	-11654
▁לזע	-11655
מלאות	-11656
מריקה	-11657
▁יבין	-11658
▁הגולן	-11659
▁לטעון	-11660
▁לרצוח	-11661
▁51	-11662
יפוח	-11663
▁בכיס	-11664
▁חוצה	-11665
▁לצדק	-11666
▁שמור	-11667
גרסיבי	-11668
▁באומץ	-11669
▁החורף	-11670
▁הנמוך	-11671
▁הריכו	-11672
▁לקחתי	-11673
▁משמעת	-11674
▁בשינוי	-11675
▁דרוזים	-11676
▁לעובדה	-11677
▁מיניות	-11678
▁שרציתי	-11679
▁במספרים	-11680
▁הקדושים	-11681
▁פיגועים	-11682
קא	-11683
אזל	-11684
▁יעדי	-11685
▁שדות	-11686
▁לחשמל	-11687
▁מרשים	-11688
▁נבחרת	-11689
▁כותרות	-11690
▁הספציפי	-11691
▁ונותנים	-11692
▁סולודקין	-11693
אבי	-11694
דידה	-11695
▁מסח	-11696
▁האגף	-11697
▁הקבע	-11698
▁ויפה	-11699
▁תאמר	-11700
▁אישיים	-11701
▁להיפגש	-11702
▁שיגידו	-11703
▁בשוויון	-11704
▁שפק	-11705
▁מעלות	-11706
▁מרחוק	-11707
▁כמדינת	-11708
▁לשיקום	-11709
יקו	-11710
לונה	-11711
פקוד	-11712
▁ובנ	-11713
▁שדר	-11714
בודות	-11715
ניקים	-11716
▁ממוש	-11717
▁רצתה	-11718
ביבתית	-11719
▁בקרקע	-11720
▁להציב	-11721
▁לקופת	-11722
▁הגברים	-11723
▁כהונתו	-11724
▁קילומטר	-11725
מחות	-11726
שיבו	-11727
▁יפו	-11728
▁להכנה	-11729
▁מסיבת	-11730
▁מתוקף	-11731
▁טיבייב	-11732
▁משתתפים	-11733
▁עירונית	-11734
▁והבטיחות	-11735
צאת	-11736
נועות	-11737
קלאים	-11738
▁הגאה	-11739
▁הלהט	-11740
▁התרח	-11741
▁לסוף	-11742
▁הבטחה	-11743
▁ותגיד	-11744
▁חרדית	-11745
▁קורים	-11746
▁במסלול	-11747
▁חיסכון	-11748
▁להעסיק	-11749
▁מכוונת	-11750
▁עסקאות	-11751
וצא	-11752
נטו	-11753
ובוק	-11754
▁פסל	-11755
יהודי	-11756
▁באום	-11757
▁מלול	-11758
▁רדיו	-11759
ביטחון	-11760
▁הצלחת	-11761
▁הקמתה	-11762
▁הנוספת	-11763
▁לשלושה	-11764
▁שעשיתי	-11765
▁באנגלית	-11766
כמת	-11767
צוק	-11768
▁מנק	-11769
▁משך	-11770
▁נכס	-11771
▁יגאל	-11772
▁כיסא	-11773
▁כיתה	-11774
▁לספור	-11775
▁מתמיד	-11776
▁תועלת	-11777
▁הניהול	-11778
▁והוראת	-11779
▁קרובים	-11780
▁ריבונו	-11781
▁לאומיות	-11782
."	-11783
▁נסת	-11784
נתאות	-11785
סמאות	-11786
▁בהפר	-11787
▁ומתק	-11788
▁שתוק	-11789
▁בחירת	-11790
▁הבחנה	-11791
▁הכרחי	-11792
▁שחלקם	-11793
▁הכיוון	-11794
▁באוניברסיטאות	-11795
▁80%	-11796
▁קירש	-11797
▁בטענה	-11798
▁העזרה	-11799
▁זקוקה	-11800
▁ממוצע	-11801
▁תרופה	-11802
▁במוצאי	-11803
▁התשתית	-11804
▁ההצבעות	-11805
▁הקבוצות	-11806
▁הראשיים	-11807
▁להיעשות	-11808
עבד	-11809
וכנת	-11810
וגעים	-11811
▁ולנו	-11812
▁ממוק	-11813
▁תקנה	-11814
▁באילת	-11815
▁כפייה	-11816
▁לאסור	-11817
▁שיביא	-11818
▁שיגיע	-11819
▁שיעשה	-11820
▁ההכרזה	-11821
▁המסלול	-11822
▁עדויות	-11823
▁הנורבגי	-11824
▁39	-11825
ומדי	-11826
סוקת	-11827
▁גרי	-11828
▁העז	-11829
▁ואיל	-11830
▁תארו	-11831
▁ייאמן	-11832
▁מוכרת	-11833
▁בבעלות	-11834
▁דיינים	-11835
▁והשאלה	-11836
קנה	-11837
▁ההר	-11838
▁מצה	-11839
▁והאם	-11840
▁לפרס	-11841
▁נפעל	-11842
▁נשלח	-11843
▁שנדר	-11844
סטרופה	-11845
▁להיפך	-11846
▁פורום	-11847
▁אויבים	-11848
▁בתקווה	-11849
▁הצבענו	-11850
▁טורקיה	-11851
▁מפורשת	-11852
▁הבדיקות	-11853
▁הנכונות	-11854
▁בפס	-11855
▁ותא	-11856
▁המעט	-11857
▁הרשמ	-11858
▁הקפאת	-11859
▁למועד	-11860
▁קודמי	-11861
▁בתמיכה	-11862
▁והנושא	-11863
▁שמגיעה	-11864
▁העומדים	-11865
▁הלאומיות	-11866
▁העיתונאים	-11867
▁קטע	-11868
▁המלי	-11869
▁וניתן	-11870
▁מטורף	-11871
▁שופטי	-11872
▁והמשטרה	-11873
▁המעורבות	-11874
▁האידיאולוגיה	-11875
ולש	-11876
קצר	-11877
בסטר	-11878
▁נתע	-11879
▁ריא	-11880
▁שלצ	-11881
חברתי	-11882
רגיות	-11883
▁ננצח	-11884
▁שכזה	-11885
▁במאות	-11886
▁בעצמה	-11887
▁למספר	-11888
▁תשאלו	-11889
▁העבירות	-11890
ושע	-11891
▁41	-11892
פארת	-11893
ולטור	-11894
▁100%	-11895
▁בהיר	-11896
▁כמוהו	-11897
▁גזירות	-11898
▁לנפגעי	-11899
▁להתבייש	-11900
▁קונסנזוס	-11901
▁//	-11902
יאון	-11903
▁הפל	-11904
▁ליח	-11905
טיחים	-11906
▁ולהח	-11907
▁עינת	-11908
▁קבעו	-11909
▁שהאי	-11910
▁הסכמת	-11911
▁להעניש	-11912
▁שהוקמה	-11913
▁האוניברסיטה	-11914
וללת	-11915
כאות	-11916
מינות	-11917
▁שמתע	-11918
▁ברדיו	-11919
▁גורמת	-11920
▁להשגת	-11921
▁לשבור	-11922
▁שכדאי	-11923
▁שמותר	-11924
▁שמחתי	-11925
▁תמונת	-11926
▁התשלומים	-11927
▁חם	-11928
▁חשו	-11929
▁לים	-11930
שיאות	-11931
▁ננסה	-11932
וצדורה	-11933
▁חופשת	-11934
▁יועבר	-11935
▁ממפלגת	-11936
פנות	-11937
▁זרי	-11938
▁כתף	-11939
▁במיר	-11940
▁גופי	-11941
▁תאשר	-11942
▁למשתכן	-11943
▁החקירות	-11944
▁היחידים	-11945
▁יהודיות	-11946
▁להתייצב	-11947
▁שמשרתים	-11948
▁קירשנבאום	-11949
ביים	-11950
וכרת	-11951
תהליך	-11952
▁ובשם	-11953
▁להוק	-11954
▁בכלים	-11955
▁החלמה	-11956
▁המנוח	-11957
▁הפרדת	-11958
▁כראוי	-11959
▁רגעים	-11960
▁תסכים	-11961
▁נתקלים	-11962
▁ניסנקורן	-11963
גלו	-11964
עיר	-11965
יתור	-11966
▁יסת	-11967
▁כדוג	-11968
▁נחמד	-11969
▁תכנו	-11970
▁במונח	-11971
▁הכנתה	-11972
▁מאיזה	-11973
▁בנקודה	-11974
▁הנסיעה	-11975
▁ולפיכך	-11976
▁עוצרים	-11977
▁האסטרטג	-11978
▁הקודמים	-11979
▁עיתונאי	-11980
▁שהזכרתי	-11981
קוו	-11982
קטיף	-11983
▁הפינ	-11984
▁הקצר	-11985
▁ישמע	-11986
▁תדעו	-11987
▁ברכבת	-11988
▁גדולי	-11989
▁השבות	-11990
▁תעביר	-11991
▁אנושית	-11992
▁ילדיהם	-11993
▁להקפיא	-11994
▁מטעמים	-11995
▁המכרזים	-11996
▁ומבקשים	-11997
להם	-11998
▁טוט	-11999
▁ציל	-12000
רגשות	-12001
▁אשמה	-12002
▁בלוח	-12003
▁ומשהו	-12004
▁מכבדת	-12005
▁מענקי	-12006
▁שנוצר	-12007
▁שקרים	-12008
▁ולשמור	-12009
▁להסדרת	-12010
▁פולארד	-12011
▁הביטחונית	-12012
נדס	-12013
סעים	-12014
▁היי	-12015
▁זרה	-12016
▁הוגש	-12017
▁היצע	-12018
▁שמונ	-12019
▁בבתים	-12020
▁העומד	-12021
▁חברותיי	-12022
)(	-12023
סטה	-12024
▁ומפ	-12025
▁והסכ	-12026
▁רצית	-12027
▁שתדע	-12028
▁קיומו	-12029
▁הפיגוע	-12030
▁הסוגיות	-12031
▁בהתנהלות	-12032
מאבק	-12033
▁שאו	-12034
ובילו	-12035
▁מיהו	-12036
▁בראשו	-12037
▁המעצר	-12038
▁וביקש	-12039
▁ולילה	-12040
▁לרשום	-12041
▁לתפקד	-12042
▁מוצלח	-12043
▁עימות	-12044
▁חומרים	-12045
▁שעשיתם	-12046
▁המוחלשות	-12047
-21	-12048
מדי	-12049
יכים	-12050
▁שתר	-12051
גייסו	-12052
▁אהרן	-12053
▁בכאב	-12054
▁מלאים	-12055
▁מצאנו	-12056
▁שישבו	-12057
▁בשורות	-12058
▁הצביעה	-12059
▁פיטורים	-12060
▁54	-12061
חיטה	-12062
▁סחר	-12063
גדרים	-12064
נהרות	-12065
▁דיגי	-12066
▁התשנ	-12067
▁ומכל	-12068
▁ברוכי	-12069
▁ובדרך	-12070
▁סגורה	-12071
▁בפיקוח	-12072
▁הצבעתי	-12073
▁שמדברת	-12074
▁ויב	-12075
▁חשמ	-12076
▁צוח	-12077
▁ורוב	-12078
▁נמאס	-12079
▁לרחוב	-12080
▁מתמשך	-12081
▁נכסים	-12082
▁סיעוד	-12083
▁אימהות	-12084
▁נפגשתי	-12085
▁אלכוהול	-12086
▁הבוחרים	-12087
▁מתפללים	-12088
▁לשירותים	-12089
וצאת	-12090
טריד	-12091
ינור	-12092
פולי	-12093
▁מגנה	-12094
▁מורי	-12095
▁למוסד	-12096
▁עדכון	-12097
▁אשכנזי	-12098
▁התרומה	-12099
▁לארגון	-12100
▁שקיבלנו	-12101
▁בפרוטוקול	-12102
סמת	-12103
▁מעז	-12104
▁הצלת	-12105
▁חדרי	-12106
גוררים	-12107
▁אבסור	-12108
▁ודאות	-12109
▁חברנו	-12110
▁לכלול	-12111
▁מטריד	-12112
וציאלית	-12113
▁הכיסאות	-12114
6%	-12115
זעים	-12116
טליה	-12117
וסיפו	-12118
▁ההיא	-12119
▁ושלי	-12120
▁ניגש	-12121
▁סוגר	-12122
▁הרגיל	-12123
▁ההשפעה	-12124
▁וממשלת	-12125
▁חינוכי	-12126
▁משירות	-12127
▁מתקיימת	-12128
▁הפצ	-12129
▁פוח	-12130
משלות	-12131
▁זרות	-12132
▁אקדמי	-12133
▁הבריטי	-12134
▁ומנסים	-12135
▁להעריך	-12136
▁משכנתה	-12137
▁השתתפתי	-12138
-300	-12139
עלאת	-12140
▁בשונה	-12141
▁הנפלא	-12142
▁לרצות	-12143
▁אישרנו	-12144
▁דיפרנצ	-12145
▁להיבחר	-12146
▁למיגור	-12147
▁מונופול	-12148
▁הפרוטוקול	-12149
▁ביורוקרטיה	-12150
שירי	-12151
הנוער	-12152
▁אלפיים	-12153
▁שנעשתה	-12154
▁בסוגיית	-12155
▁האנושית	-12156
▁האקדמיה	-12157
▁הכבישים	-12158
▁עקרונית	-12159
▁בהשתתפות	-12160
as	-12161
וזה	-12162
▁במז	-12163
▁יומ	-12164
קהילה	-12165
▁אלים	-12166
▁הידר	-12167
▁היפה	-12168
▁מסחר	-12169
▁ריקה	-12170
לכתיים	-12171
▁הסביר	-12172
▁נזקים	-12173
▁רשאית	-12174
▁כדורגל	-12175
▁לדבריו	-12176
▁מהווים	-12177
▁הומניטרי	-12178
מעה	-12179
קיע	-12180
▁תט	-12181
כירה	-12182
▁טבח	-12183
גוריה	-12184
▁בקצה	-12185
▁יקום	-12186
בחירות	-12187
הוריות	-12188
▁בכנות	-12189
▁שממנו	-12190
▁תקבלו	-12191
▁בתכנון	-12192
▁סיימתי	-12193
▁ברפורמה	-12194
▁השכירות	-12195
▁הצי	-12196
▁רצף	-12197
▁דוחה	-12198
▁אושרו	-12199
▁הניתן	-12200
▁טיעון	-12201
▁לעמדת	-12202
▁שנפגע	-12203
▁בבחינת	-12204
▁להתמקד	-12205
▁המשרתים	-12206
▁ציבוריות	-12207
▁דמוקרטיות	-12208
▁אורך	-12209
▁בלוד	-12210
▁גיור	-12211
▁מלקו	-12212
▁שנשמ	-12213
▁חודשי	-12214
▁נולדה	-12215
▁עמידה	-12216
▁דיאלוג	-12217
▁העלינו	-12218
▁חשודים	-12219
▁מינהלת	-12220
▁וזכויות	-12221
▁שעוברים	-12222
▁52	-12223
גובה	-12224
ודוק	-12225
▁20,	-12226
▁תסת	-12227
▁חוקק	-12228
▁נהדר	-12229
▁הדאגה	-12230
▁המלאה	-12231
▁חסרות	-12232
▁רכבים	-12233
▁המזכיר	-12234
▁עצורים	-12235
▁מחייבים	-12236
▁שמשלמים	-12237
▁המודיעין	-12238
מורת	-12239
▁בכר	-12240
▁גני	-12241
▁נדי	-12242
רבנים	-12243
▁ששיל	-12244
ייגלין	-12245
▁יימשך	-12246
▁לדירה	-12247
▁יועצים	-12248
▁במתכונת	-12249
▁הרפורמות	-12250
▁בטוב	-12251
▁בניו	-12252
▁שוטף	-12253
▁תבין	-12254
סתכלים	-12255
▁גדלתי	-12256
▁דנינו	-12257
▁ורבים	-12258
▁מתבקש	-12259
▁לבחינת	-12260
▁מכרזים	-12261
דמוקרטית	-12262
▁מרכזיים	-12263
נסט	-12264
▁בדור	-12265
▁המטה	-12266
▁מפלה	-12267
▁נקבעה	-12268
▁שנגיע	-12269
▁הדתיות	-12270
▁אוקטובר	-12271
▁התהליכים	-12272
▁והקואליציה	-12273
חום	-12274
▁נגר	-12275
▁המכש	-12276
▁מוטר	-12277
▁2010.	-12278
▁בדיחה	-12279
▁ובעוד	-12280
▁בכיתות	-12281
▁הטיעון	-12282
▁חרדיות	-12283
מנכ	-12284
▁700	-12285
▁שתס	-12286
▁הבעי	-12287
▁השלב	-12288
▁העומס	-12289
▁ולחבר	-12290
▁מעמדם	-12291
▁נוסיף	-12292
▁ולבנות	-12293
מצעי	-12294
▁הכס	-12295
▁ואס	-12296
▁בקשב	-12297
▁יציר	-12298
▁שמאז	-12299
תיפאדה	-12300
▁במקור	-12301
▁הטעות	-12302
▁הידוע	-12303
▁ואותם	-12304
▁וילנאי	-12305
▁ולקיים	-12306
▁זורקים	-12307
▁המשטרית	-12308
▁משמעותיות	-12309
▁in	-12310
תתפים	-12311
▁אופי	-12312
▁ובמה	-12313
▁לחוץ	-12314
▁שנלח	-12315
▁הוכחה	-12316
▁רונית	-12317
▁שמשרת	-12318
▁במערכה	-12319
▁במעונות	-12320
פציה	-12321
▁לנח	-12322
▁הפיל	-12323
▁כאדם	-12324
▁לקור	-12325
▁בתוכו	-12326
▁הבאתם	-12327
▁הילדה	-12328
▁ונדמה	-12329
▁לערער	-12330
▁קורסים	-12331
▁גיבורים	-12332
בילו	-12333
▁ללק	-12334
▁קנה	-12335
▁המסגרת	-12336
▁ולסייע	-12337
▁שתאפשר	-12338
▁תוקפים	-12339
▁המחוקקת	-12340
▁מהילדים	-12341
▁האמריקנים	-12342
▁47	-12343
▁63	-12344
בחנה	-12345
▁בגן	-12346
▁ונכ	-12347
▁מיס	-12348
▁צגה	-12349
▁צרה	-12350
▁אודה	-12351
▁המזע	-12352
▁עומק	-12353
▁שנלר	-12354
▁אדרבה	-12355
▁חוקתי	-12356
▁שטויות	-12357
עין	-12358
יתוי	-12359
▁בגוש	-12360
▁קטין	-12361
▁שבנו	-12362
▁הפרשה	-12363
▁ומספר	-12364
▁מזכירה	-12365
▁מתנהגים	-12366
▁טרוריסטים	-12367
-1.	-12368
מוסד	-12369
▁הכפ	-12370
▁ייו	-12371
טימות	-12372
▁אונר	-12373
▁וגדל	-12374
▁לפצל	-12375
▁מיון	-12376
זכויות	-12377
▁אלייך	-12378
▁הפיננס	-12379
▁להעלאת	-12380
▁שלדעתי	-12381
▁לתחבורה	-12382
▁בפייסבוק	-12383
▁מנגנונים	-12384
מתן	-12385
ועצה	-12386
▁תיג	-12387
▁לקרב	-12388
▁מידי	-12389
▁רוצח	-12390
▁שכדי	-12391
▁שלכל	-12392
▁העולה	-12393
▁ינואר	-12394
▁תפריע	-12395
▁פייגלין	-12396
איר	-12397
▁6.	-12398
ופרים	-12399
▁בודד	-12400
▁לשעה	-12401
▁מהמע	-12402
▁קצבה	-12403
יערכות	-12404
▁חברון	-12405
▁למוות	-12406
▁המטרות	-12407
▁כהוראת	-12408
▁בהפגנות	-12409
בב	-12410
ריט	-12411
גלות	-12412
וכחה	-12413
תימת	-12414
▁נחל	-12415
▁פנס	-12416
▁מתרח	-12417
▁שההת	-12418
▁בחומר	-12419
▁המקדש	-12420
▁מובהק	-12421
▁מקיפה	-12422
▁שקודם	-12423
▁אבסורד	-12424
▁סופרים	-12425
▁להסתובב	-12426
▁מסתובבים	-12427
ומע	-12428
מטר	-12429
הגנה	-12430
▁בסל	-12431
▁המלה	-12432
▁שקמה	-12433
▁ולחזק	-12434
▁לאסוף	-12435
▁רכישת	-12436
▁שלמעשה	-12437
▁הקולנוע	-12438
▁נורמלית	-12439
▁לעניינים	-12440
כיות	-12441
סמוט	-12442
שאול	-12443
החיים	-12444
▁בכול	-12445
▁הכוש	-12446
▁ומעל	-12447
▁צועק	-12448
▁קשוב	-12449
▁בדרכו	-12450
▁האימא	-12451
▁לאחור	-12452
▁שביתה	-12453
▁האסלאם	-12454
▁האמירות	-12455
▁סובלנות	-12456
▁שדיברתי	-12457
אס	-12458
▁הנע	-12459
לוואי	-12460
▁הממל	-12461
▁הקיר	-12462
▁נפלא	-12463
▁כואבת	-12464
▁מתעסק	-12465
▁תחשוב	-12466
▁נציבות	-12467
▁הנמצאים	-12468
▁שלטונית	-12469
חרים	-12470
כיים	-12471
▁מתפ	-12472
▁דודו	-12473
▁הטור	-12474
▁התחנה	-12475
▁יינתן	-12476
▁למחות	-12477
▁מתוכן	-12478
▁מתערב	-12479
▁קהילת	-12480
▁שהבית	-12481
▁להגדלת	-12482
▁מגינים	-12483
חיזבאללה	-12484
▁המעונות	-12485
▁שפועלים	-12486
ברס	-12487
ופס	-12488
צנו	-12489
▁70%	-12490
▁התו	-12491
▁בעשר	-12492
▁כיפה	-12493
▁פיני	-12494
▁הפועל	-12495
▁לחלוק	-12496
▁לקיום	-12497
▁בחברון	-12498
▁ביסמוט	-12499
▁היציאה	-12500
מידו	-12501
נטית	-12502
נתנו	-12503
▁הפיס	-12504
▁לשקם	-12505
▁סכנת	-12506
▁שקבע	-12507
ובלנות	-12508
▁חנוכה	-12509
▁מתקני	-12510
▁בפיתוח	-12511
▁ובמקרה	-12512
▁ונמשיך	-12513
▁שלילית	-12514
▁האורחים	-12515
▁מעדיפים	-12516
פתר	-12517
צרה	-12518
איפה	-12519
▁הפט	-12520
▁אמנה	-12521
▁ושני	-12522
▁נשאל	-12523
▁הזכרת	-12524
▁פטריו	-12525
▁להתאחד	-12526
▁בהסכמים	-12527
▁ההבטחות	-12528
▁מהמקרים	-12529
▁הסיפורים	-12530
קלה	-12531
▁רה	-12532
הדסה	-12533
כימה	-12534
▁תשב	-12535
▁דואגת	-12536
▁לקחים	-12537
▁לגברים	-12538
▁נופלים	-12539
▁שנצליח	-12540
▁תשובתו	-12541
▁היערכות	-12542
▁הסטודנט	-12543
▁התבשרנו	-12544
▁למיניהם	-12545
▁מטופלים	-12546
▁מרוויחים	-12547
ורד	-12548
דיפות	-12549
▁קראת	-12550
▁שככל	-12551
▁הכרתי	-12552
▁השנתי	-12553
▁בריאים	-12554
▁ההפרדה	-12555
▁השכנים	-12556
▁שאיננה	-12557
חתים	-12558
פסלי	-12559
▁2018	-12560
ידברות	-12561
▁עיוור	-12562
▁הצעירה	-12563
▁החשובות	-12564
▁לתר	-12565
▁שים	-12566
▁שצה	-12567
▁סמים	-12568
▁קולו	-12569
▁חורבן	-12570
▁לחצים	-12571
▁מהארץ	-12572
▁אינטנס	-12573
▁לכולכם	-12574
▁מוגבלת	-12575
▁תקשיבי	-12576
▁מוחלשות	-12577
▁אסטרטגית	-12578
▁הכיפורים	-12579
משל	-12580
פקו	-12581
וערת	-12582
▁ולנ	-12583
▁סבי	-12584
▁אשיב	-12585
▁המסע	-12586
▁בגרות	-12587
▁לצפון	-12588
▁מעורר	-12589
▁שהציג	-12590
▁שמואל	-12591
▁אווירה	-12592
▁ושמעתי	-12593
▁לרווחה	-12594
▁חיזבאללה	-12595
ידם	-12596
ניו	-12597
למוד	-12598
נעים	-12599
▁לבו	-12600
▁נבחן	-12601
▁פינה	-12602
▁המכון	-12603
▁מחצית	-12604
▁שנהיה	-12605
▁במינהל	-12606
▁ובראשם	-12607
▁ומאפשר	-12608
▁מייצגת	-12609
וליטיקאים	-12610
300	-12611
▁בלו	-12612
▁נשר	-12613
▁ניצב	-12614
▁ציין	-12615
▁2023.	-12616
▁בחרתי	-12617
▁האנטי	-12618
▁המאגר	-12619
▁יעבוד	-12620
▁מטופל	-12621
▁מניחה	-12622
▁מצחיק	-12623
▁שפחות	-12624
▁הדוברת	-12625
▁החירות	-12626
▁העוצמה	-12627
▁לעובדי	-12628
il	-12629
נוב	-12630
נהלו	-12631
▁למר	-12632
▁מיי	-12633
▁תני	-12634
ראיין	-12635
▁בגדה	-12636
▁נודע	-12637
▁שמחר	-12638
▁בגאווה	-12639
▁למנהלת	-12640
▁מפורטת	-12641
▁שהביאה	-12642
▁הנוספים	-12643
▁הנפגעים	-12644
▁להצבעות	-12645
כילה	-12646
שעים	-12647
▁מרא	-12648
הגולן	-12649
▁אתיו	-12650
▁הכלא	-12651
▁תפעל	-12652
ובילים	-12653
▁ואולם	-12654
▁תעסוק	-12655
▁באיכות	-12656
▁בדואים	-12657
▁חילוני	-12658
▁מעצרים	-12659
▁עשירים	-12660
▁במסגרות	-12661
▁שמביאים	-12662
▁l	-12663
▁לזכ	-12664
ופיות	-12665
יימנו	-12666
עללות	-12667
▁2021	-12668
▁ועשו	-12669
▁חלקו	-12670
▁מטיל	-12671
יהודים	-12672
▁והשני	-12673
▁משקיע	-12674
▁הייצוג	-12675
▁לתשובה	-12676
▁אחרונות	-12677
▁עץ	-12678
בחרת	-12679
ומכת	-12680
חתית	-12681
קונס	-12682
▁60%	-12683
▁טקס	-12684
▁שלכ	-12685
חקיקה	-12686
▁העדות	-12687
▁יורים	-12688
▁לפגוש	-12689
▁שהשתת	-12690
▁הוספנו	-12691
▁ולחברי	-12692
▁הציבוריות	-12693
קשן	-12694
▁5%	-12695
אריך	-12696
המלח	-12697
▁צרכ	-12698
חילים	-12699
▁מכות	-12700
▁פצוע	-12701
▁ששני	-12702
▁2015.	-12703
▁בחינת	-12704
▁הבוחר	-12705
▁כבדים	-12706
▁נשימה	-12707
▁ענקית	-12708
▁לפנסיה	-12709
▁פעילים	-12710
בטיח	-12711
מילה	-12712
▁14,	-12713
▁800	-12714
▁בחרי	-12715
▁ביטל	-12716
▁2020.	-12717
▁הנכבד	-12718
▁ואבוי	-12719
▁מבוגר	-12720
▁שכבות	-12721
▁ממדרגה	-12722
▁שהרשות	-12723
▁מנדלבליט	-12724
-22	-12725
מצעות	-12726
▁2019	-12727
▁הטבה	-12728
▁מכמה	-12729
▁צופה	-12730
▁שלחו	-12731
▁בעצמי	-12732
▁בשטחי	-12733
▁משאיר	-12734
▁נהדרת	-12735
▁פיזור	-12736
▁שבעוד	-12737
▁בהפגנה	-12738
▁לבעיות	-12739
▁שבויים	-12740
▁הגיבורים	-12741
נל	-12742
נוח	-12743
יהיה	-12744
▁בתר	-12745
ידורי	-12746
יכרות	-12747
▁שפות	-12748
▁ונותן	-12749
▁מגדרי	-12750
▁נהפוך	-12751
▁היבטים	-12752
▁השתתפו	-12753
▁ידידות	-12754
▁מגזרים	-12755
▁נוגעים	-12756
מויות	-12757
▁אביו	-12758
▁השמש	-12759
▁נחקק	-12760
▁שירה	-12761
▁אשפוז	-12762
▁טייבה	-12763
▁עקיבא	-12764
▁במשטרת	-12765
▁הראויה	-12766
▁ובעולם	-12767
▁התחלואה	-12768
▁מקסימום	-12769
▁משאירים	-12770
▁שיאפשרו	-12771
▁פעילויות	-12772
פקה	-12773
▁בהי	-12774
▁דלל	-12775
▁חלשה	-12776
▁נגדה	-12777
▁בידוד	-12778
▁כתובת	-12779
▁לעקור	-12780
▁נהגים	-12781
▁קרנות	-12782
▁שבאופן	-12783
▁שעולים	-12784
▁הנכונים	-12785
▁ממשלתיים	-12786
חסים	-12787
יילי	-12788
לימה	-12789
מתנה	-12790
קימו	-12791
▁ועש	-12792
▁ישן	-12793
▁מקפ	-12794
חושות	-12795
▁הגור	-12796
▁ציני	-12797
אליעזר	-12798
▁בקבוק	-12799
▁זקנים	-12800
▁לימין	-12801
▁מוגדר	-12802
▁בדימוס	-12803
▁יורדים	-12804
▁לליכוד	-12805
▁שכאילו	-12806
רוטוקולים	-12807
▁באוניברסיטת	-12808
סס	-12809
▁ערד	-12810
▁והמו	-12811
▁נטפל	-12812
▁נשלם	-12813
▁עומס	-12814
▁שהמצ	-12815
▁שרצו	-12816
▁הכתובת	-12817
▁רפואית	-12818
▁השכונות	-12819
▁המנהיגים	-12820
עוד	-12821
גורר	-12822
גליה	-12823
יעוד	-12824
▁גסה	-12825
▁וטר	-12826
▁חבי	-12827
כנסנו	-12828
עילית	-12829
▁הינו	-12830
▁שנתי	-12831
▁השלמה	-12832
▁כותבת	-12833
▁משרות	-12834
▁תעזור	-12835
▁להקצות	-12836
▁המצלמות	-12837
כתו	-12838
פעלו	-12839
▁קומ	-12840
▁משמש	-12841
▁עומר	-12842
▁ייגמר	-12843
▁כלבים	-12844
▁לדווח	-12845
▁דחופות	-12846
▁ההצלחה	-12847
ען	-12848
חבר	-12849
נדר	-12850
מטרי	-12851
▁שכמ	-12852
▁בבנק	-12853
▁המבו	-12854
▁וידי	-12855
▁יקיר	-12856
▁2017.	-12857
▁קליטה	-12858
▁הסיכוי	-12859
▁ליהדות	-12860
▁מחלקים	-12861
▁שהעולם	-12862
▁שמעולם	-12863
▁האוניברסיטאות	-12864
▁בחול	-12865
▁רחוב	-12866
▁בעליל	-12867
▁האסיר	-12868
▁הירדן	-12869
▁מוסמך	-12870
וניינים	-12871
▁השוואה	-12872
▁השקרים	-12873
ברא	-12874
גדות	-12875
שבנו	-12876
▁הצט	-12877
▁ונפ	-12878
▁השיר	-12879
▁לפזר	-12880
▁מותו	-12881
▁ששון	-12882
▁4,000	-12883
▁אחוזי	-12884
▁לפניו	-12885
▁לעולים	-12886
▁מבטלים	-12887
▁מקובלת	-12888
▁שאתמול	-12889
▁בתעסוקה	-12890
סן	-12891
וטה	-12892
כשל	-12893
▁פח	-12894
▁you	-12895
▁לעז	-12896
▁באלה	-12897
▁מפגש	-12898
▁מצטע	-12899
▁משמע	-12900
▁2012.	-12901
▁ייעוץ	-12902
▁בשבילם	-12903
▁המחוזי	-12904
▁ייחודי	-12905
▁קיבלתם	-12906
▁ועובדים	-12907
▁מאחריות	-12908
▁מוגבלים	-12909
▁ההתייעלות	-12910
נהלה	-12911
▁בעק	-12912
▁נצא	-12913
אנחנו	-12914
חררים	-12915
קיפים	-12916
▁לגוף	-12917
▁מזוז	-12918
▁המטור	-12919
▁תיכון	-12920
▁אדומים	-12921
▁שניתנו	-12922
▁בהוצאות	-12923
▁ממשלתיות	-12924
ed	-12925
▁g	-12926
שבי	-12927
▁דף	-12928
▁להינ	-12929
▁מזדה	-12930
▁פיות	-12931
▁2018.	-12932
▁2019,	-12933
▁הליבר	-12934
▁המחבל	-12935
▁השוטר	-12936
▁ואמרת	-12937
▁נובעת	-12938
▁נתונה	-12939
▁הסכומים	-12940
▁לדיונים	-12941
▁מסיימים	-12942
▁שהתקבלה	-12943
▁ובמקומות	-12944
▁הפוליטיקאים	-12945
פין	-12946
-500	-12947
בנים	-12948
זהיר	-12949
לקים	-12950
נהגו	-12951
▁גרו	-12952
פריקה	-12953
▁בהיש	-12954
נהיגים	-12955
▁בהסדר	-12956
▁התפרסם	-12957
▁והיינו	-12958
▁מקרקעין	-12959
▁מקשיבים	-12960
▁הפוליטיות	-12961
ווך	-12962
זום	-12963
כום	-12964
וננות	-12965
▁דורס	-12966
▁מתרג	-12967
רוטקשן	-12968
▁במבצע	-12969
▁לחופש	-12970
▁לרווח	-12971
▁תחליף	-12972
▁במלאכה	-12973
▁בעבודת	-12974
▁הפיצוי	-12975
▁להימשך	-12976
▁טיפולים	-12977
ערכתי	-12978
▁הווד	-12979
▁המשמ	-12980
▁שיווק	-12981
▁הסברתי	-12982
▁חוקרים	-12983
▁מרוויח	-12984
▁שציינת	-12985
▁בתפקידים	-12986
▁הטכנולוגיה	-12987
▁46	-12988
ניאל	-12989
▁למז	-12990
▁אדון	-12991
▁בלעד	-12992
▁ולהק	-12993
▁2014.	-12994
▁בשיטה	-12995
▁הכרעה	-12996
▁שבחוק	-12997
▁החיבור	-12998
▁לאיכות	-12999
▁להיזהר	-13000
▁תזונתי	-13001
▁במחירים	-13002
▁וכשאנחנו	-13003
וכם	-13004
▁סק	-13005
▁רוע	-13006
0,000,	-13007
▁האופן	-13008
▁ירגיש	-13009
▁להכרה	-13010
▁עורכת	-13011
▁עיניו	-13012
▁שידוע	-13013
▁בארנונה	-13014
▁שהצביעו	-13015
▁טה	-13016
▁ארד	-13017
▁נבד	-13018
▁שהפר	-13019
▁בהגנה	-13020
▁יחולו	-13021
▁ייקחו	-13022
▁עיסוק	-13023
▁ערעור	-13024
▁תהפוך	-13025
▁במצבים	-13026
▁הנדרשת	-13027
▁כור	-13028
▁דיוק	-13029
▁מעיר	-13030
▁שלקח	-13031
▁בחברת	-13032
▁האבות	-13033
▁היבוא	-13034
▁בפניהם	-13035
▁ועניין	-13036
▁שנותרו	-13037
▁הקהילות	-13038
▁ובמסגרת	-13039
▁במירכאות	-13040
רקס	-13041
ופרת	-13042
▁הבג	-13043
▁טיפל	-13044
▁לשיח	-13045
▁עשיר	-13046
▁תוצר	-13047
▁ההסכמה	-13048
▁להעברת	-13049
▁בגרמניה	-13050
▁חיוניים	-13051
ארה	-13052
ולו	-13053
▁and	-13054
▁כשק	-13055
▁ההול	-13056
▁הקומ	-13057
▁המגפה	-13058
▁תצליח	-13059
▁ברשימת	-13060
▁ואזרחי	-13061
▁למזכיר	-13062
▁לשיתוף	-13063
▁סומכים	-13064
▁המהלכים	-13065
▁הרבניים	-13066
▁וחירותו	-13067
▁לוויכוח	-13068
וכי	-13069
יקור	-13070
▁שגד	-13071
נוקות	-13072
פיסות	-13073
▁ארוכת	-13074
▁במעלה	-13075
▁הפרות	-13076
▁תתמוך	-13077
▁הבגרות	-13078
▁ההצהרה	-13079
▁הסכמנו	-13080
▁הקטנות	-13081
-100,000	-13082
▁המוניצי	-13083
▁המשכורת	-13084
▁מהאזרחים	-13085
חתו	-13086
ייר	-13087
שטה	-13088
▁במעט	-13089
▁והמע	-13090
▁לחיס	-13091
▁תימן	-13092
▁בפניך	-13093
▁מתקשה	-13094
▁בעובדה	-13095
▁ברווחה	-13096
▁המוסרי	-13097
▁למשטרת	-13098
▁לפקודת	-13099
▁מנצלים	-13100
▁שמאפשרת	-13101
ic	-13102
-2,	-13103
ינן	-13104
▁תמך	-13105
▁2024	-13106
▁נחכה	-13107
▁רמטכ	-13108
▁שאיר	-13109
תייגים	-13110
▁דצמבר	-13111
▁הפחות	-13112
▁ובעלי	-13113
▁לפסול	-13114
▁מודאג	-13115
▁משאבי	-13116
▁שכונת	-13117
▁בלבנון	-13118
▁הפשוטה	-13119
▁ניגשים	-13120
▁שנועדו	-13121
▁אויבינו	-13122
▁לאוניברסי	-13123
שמת	-13124
נציח	-13125
▁גזר	-13126
▁ניח	-13127
▁ותוך	-13128
▁סרטן	-13129
▁רצוי	-13130
▁בסיוע	-13131
▁הקצאת	-13132
▁זיכוי	-13133
▁כהונה	-13134
▁לכסות	-13135
▁רוסיה	-13136
▁בביצוע	-13137
▁המועמד	-13138
▁המכריע	-13139
▁לקבוצה	-13140
▁25%	-13141
▁ונא	-13142
▁פשי	-13143
מורות	-13144
פשטות	-13145
▁במתק	-13146
▁ואיש	-13147
▁דתיות	-13148
▁המלצת	-13149
▁נועדו	-13150
▁צופים	-13151
▁שכבוד	-13152
▁בתאגיד	-13153
▁המחסור	-13154
▁מצומצם	-13155
▁חשבונות	-13156
וכב	-13157
▁כק	-13158
יזים	-13159
▁בסבל	-13160
▁הרקע	-13161
▁לגדל	-13162
פקידים	-13163
▁אומות	-13164
▁גביית	-13165
▁הכרזה	-13166
▁העברתי	-13167
▁חלופות	-13168
▁שנשארו	-13169
▁הנרצחים	-13170
▁הפקידים	-13171
▁ויהודים	-13172
▁מבו	-13173
▁נכל	-13174
▁קשב	-13175
▁בברי	-13176
▁לחדר	-13177
▁אבטחה	-13178
▁ישנים	-13179
▁למצות	-13180
▁מסתפק	-13181
▁נותרו	-13182
▁נמשכת	-13183
▁פדידה	-13184
▁שמחון	-13185
▁תרגיל	-13186
▁התאריך	-13187
▁ההנחיות	-13188
מסד	-13189
פיש	-13190
▁הרמב	-13191
קטורים	-13192
▁מוכות	-13193
▁נולדו	-13194
▁נשיאת	-13195
▁לתופעה	-13196
▁לתשומת	-13197
▁שהתחיל	-13198
▁הסתכלתי	-13199
ביט	-13200
דוק	-13201
חדש	-13202
דרכה	-13203
▁חכה	-13204
▁יזם	-13205
▁פוט	-13206
▁תוע	-13207
רחבים	-13208
▁באדם	-13209
▁ועשה	-13210
▁חתמו	-13211
▁לחדד	-13212
▁פעלו	-13213
▁שנגד	-13214
▁בהנחה	-13215
▁דחייה	-13216
▁האלקט	-13217
▁בשידור	-13218
▁הפרעות	-13219
▁לאומני	-13220
▁הפסיכול	-13221
▁בעיתונות	-13222
▁השאילתות	-13223
אין	-13224
אלב	-13225
כורת	-13226
▁מרן	-13227
▁רמי	-13228
▁אמיץ	-13229
▁ביפו	-13230
▁מפות	-13231
▁בריאה	-13232
▁מגדיר	-13233
המועצות	-13234
▁בכוחות	-13235
▁ההרתעה	-13236
▁באקדמיה	-13237
▁הרפואיים	-13238
זרי	-13239
אילן	-13240
צדדי	-13241
דילים	-13242
שנתית	-13243
▁אנוש	-13244
▁הלחם	-13245
▁מוגן	-13246
▁נשנה	-13247
▁דחיית	-13248
▁מולדת	-13249
▁שמביא	-13250
▁הבטיחו	-13251
▁הדרוזיים	-13252
▁שקב	-13253
▁דליה	-13254
▁טכני	-13255
▁מצנע	-13256
▁במעצר	-13257
▁הצענו	-13258
▁הקפאה	-13259
▁וללכת	-13260
▁הודיעו	-13261
▁יוזמות	-13262
▁נוצרים	-13263
▁רחוקים	-13264
▁הפצועים	-13265
▁מעריכים	-13266
וזי	-13267
אבים	-13268
ולית	-13269
זמות	-13270
▁בחג	-13271
▁ההרס	-13272
▁כתבו	-13273
▁שבתי	-13274
▁בסמים	-13275
▁מעודד	-13276
▁סיבוב	-13277
▁שמונח	-13278
▁אפריקה	-13279
▁ומקצוע	-13280
▁לבניית	-13281
▁מטילים	-13282
▁בגבולות	-13283
▁ובמקביל	-13284
▁וחייבים	-13285
▁בשירותים	-13286
▁לאומ	-13287
▁לסכן	-13288
▁מכהן	-13289
▁קאסם	-13290
▁רמון	-13291
ומטרים	-13292
▁2011.	-13293
▁כספית	-13294
▁שנותר	-13295
▁תוצרת	-13296
▁הנאצית	-13297
▁הפסיקה	-13298
▁יתחילו	-13299
▁משקיעה	-13300
▁שמכונה	-13301
▁שמתרחש	-13302
אבל	-13303
▁חתם	-13304
פלציה	-13305
▁דעתה	-13306
▁לעצם	-13307
▁האוזן	-13308
▁המתנה	-13309
▁הנהגה	-13310
▁חוכמה	-13311
▁נדחתה	-13312
▁נסתכל	-13313
▁שבעולם	-13314
▁שהוגשה	-13315
▁המפעלים	-13316
▁הקבועים	-13317
▁להשתנות	-13318
":	-13319
ירוב	-13320
▁קטל	-13321
אישום	-13322
▁בנים	-13323
▁הביו	-13324
▁והשק	-13325
▁ידעת	-13326
▁מאחד	-13327
▁סבתא	-13328
▁שדבר	-13329
חויבות	-13330
▁עתידה	-13331
▁האמנתי	-13332
▁המיסוי	-13333
▁הרגשתי	-13334
▁יסתיים	-13335
▁נאמנים	-13336
▁שהתקיים	-13337
▁מהמציאות	-13338
3%	-13339
-80	-13340
בקשו	-13341
וזרת	-13342
▁לכפר	-13343
▁לנגב	-13344
▁שמוע	-13345
▁שקרא	-13346
▁המצוי	-13347
▁העצום	-13348
▁ראיתם	-13349
▁רשאים	-13350
▁חתימות	-13351
▁הנציגים	-13352
עיפי	-13353
▁צומ	-13354
▁פסקי	-13355
▁בצורת	-13356
▁וברגע	-13357
▁הפנימי	-13358
▁מחזירים	-13359
יבתה	-13360
נפים	-13361
▁ליבי	-13362
▁מחלת	-13363
▁פוגש	-13364
▁פנינו	-13365
▁הזוגות	-13366
▁ולצוות	-13367
▁לתוצאות	-13368
▁מסתפקים	-13369
▁רלוונטית	-13370
חרו	-13371
לבן	-13372
צוף	-13373
▁מתל	-13374
▁הסגר	-13375
▁לבשר	-13376
▁לוחות	-13377
▁מטרתו	-13378
▁נזכור	-13379
▁סרטון	-13380
▁שמיים	-13381
▁תרומת	-13382
▁הבעלים	-13383
▁העימות	-13384
▁המחלוקת	-13385
▁שזקוקים	-13386
מרק	-13387
דקנו	-13388
קיקת	-13389
שאות	-13390
▁שבד	-13391
ירושה	-13392
▁דסטה	-13393
▁כשכל	-13394
▁מלון	-13395
▁החומש	-13396
▁חילול	-13397
▁בהגדרה	-13398
▁בעלייה	-13399
▁בשבילו	-13400
▁בשכבות	-13401
▁רגליים	-13402
▁אינטרנט	-13403
▁שמשמעות	-13404
▁בתקציבים	-13405
ללה	-13406
ברמן	-13407
וריד	-13408
פיקה	-13409
▁תיד	-13410
משמעי	-13411
תיישב	-13412
▁ביצע	-13413
▁בשמי	-13414
▁החלו	-13415
▁פרוץ	-13416
▁אמילי	-13417
▁בגבול	-13418
▁האמנה	-13419
▁המחדל	-13420
▁ודיבר	-13421
▁במועצת	-13422
▁הבכורה	-13423
▁שאזרחי	-13424
▁שביקשו	-13425
▁הנסיבות	-13426
7%	-13427
▁49	-13428
▁ויז	-13429
▁כולי	-13430
▁לחגוג	-13431
▁רכישה	-13432
▁הבחינה	-13433
▁עצמאים	-13434
פרקליטות	-13435
ללים	-13436
▁לכב	-13437
מיניץ	-13438
▁אחיו	-13439
▁במיל	-13440
▁לקרן	-13441
▁המוצא	-13442
▁סיפוח	-13443
▁שקורא	-13444
▁הדמוגר	-13445
▁לידיים	-13446
▁מתמשכת	-13447
▁סבלנות	-13448
▁שהוגשו	-13449
▁שיקבלו	-13450
▁להתחייב	-13451
▁מכוניות	-13452
▁תקציביות	-13453
▁האוטובוסים	-13454
זויה	-13455
כינה	-13456
▁נחס	-13457
▁ציט	-13458
▁שלש	-13459
▁לקחה	-13460
▁שהות	-13461
▁התעור	-13462
▁ולאשר	-13463
▁נפרדת	-13464
▁נשאלת	-13465
▁בתמיכת	-13466
▁הבדואי	-13467
▁הרישוי	-13468
▁שבמקרה	-13469
▁ויודעים	-13470
▁תפקידנו	-13471
▁הפוטנציאל	-13472
שף	-13473
גבש	-13474
נתק	-13475
וגרת	-13476
יידי	-13477
▁ושו	-13478
▁שבכ	-13479
▁לאזן	-13480
▁נקוד	-13481
▁שמוג	-13482
▁תשלם	-13483
▁אזהרה	-13484
▁וכמעט	-13485
▁בדיעבד	-13486
▁שבהחלט	-13487
▁ליע	-13488
▁בטקס	-13489
▁נפגש	-13490
▁רושם	-13491
כזריות	-13492
▁איגוד	-13493
▁תוספות	-13494
יונל	-13495
▁פסח	-13496
▁מופק	-13497
▁צומת	-13498
▁רעים	-13499
ייטנות	-13500
▁הברזל	-13501
▁ומנסה	-13502
▁חבריו	-13503
▁לאישה	-13504
▁לשמאל	-13505
▁הודיעה	-13506
▁הועברו	-13507
▁השכונה	-13508
▁השמונה	-13509
▁ייעודי	-13510
▁להקטין	-13511
▁רווחים	-13512
▁הסיעודי	-13513
▁השכולות	-13514
▁מהעבודה	-13515
▁ערר	-13516
▁לנפש	-13517
▁שקרן	-13518
▁הסיכו	-13519
▁ולטפל	-13520
▁לפנים	-13521
▁מוכיח	-13522
▁הלוואה	-13523
▁כממשלה	-13524
▁מהחברים	-13525
פלג	-13526
עוות	-13527
▁טיו	-13528
▁לתה	-13529
▁עכו	-13530
אבדות	-13531
יהינו	-13532
▁ההלו	-13533
▁במפעל	-13534
▁התערי	-13535
▁חדרים	-13536
▁הקורבן	-13537
▁מזמינה	-13538
▁בהיקפים	-13539
▁הקמפיין	-13540
▁חיסונים	-13541
▁הממשלתיות	-13542
ולב	-13543
כחיש	-13544
▁250	-13545
▁תקף	-13546
▁ומוצ	-13547
▁לנתק	-13548
▁תעשי	-13549
▁ומגיע	-13550
▁יעילה	-13551
▁מסתדר	-13552
▁שהכסף	-13553
▁תתקבל	-13554
▁מציגים	-13555
▁עוזבים	-13556
▁העליונה	-13557
▁ואלימות	-13558
▁טלפונים	-13559
8%	-13560
אט	-13561
לקל	-13562
זירה	-13563
נביס	-13564
▁בשמ	-13565
פקידה	-13566
▁וקצת	-13567
▁אצטרך	-13568
▁אשתדל	-13569
▁האומץ	-13570
▁המסור	-13571
▁התפטר	-13572
▁זמנית	-13573
▁שתבוא	-13574
▁בתאריך	-13575
▁הפנייה	-13576
▁והשרים	-13577
▁לפיקוח	-13578
▁קרובות	-13579
▁המשפחתי	-13580
▁ולהתחיל	-13581
▁מורכבות	-13582
▁שסגן	-13583
▁וכדאי	-13584
▁הגבייה	-13585
▁קמיניץ	-13586
▁שכמובן	-13587
▁ההשקעות	-13588
בזק	-13589
▁אדי	-13590
▁ומול	-13591
▁שבחר	-13592
נשטיין	-13593
▁המערב	-13594
▁הפגרה	-13595
▁לבסיס	-13596
▁בהובלת	-13597
▁הלגיטי	-13598
▁האישיים	-13599
▁הרפואית	-13600
600	-13601
רעור	-13602
▁בבק	-13603
▁היב	-13604
בעיות	-13605
▁במסע	-13606
▁לריב	-13607
▁מלאי	-13608
▁ולקחת	-13609
▁מזהיר	-13610
▁גרעיני	-13611
▁האיסור	-13612
▁הולכות	-13613
▁חקלאים	-13614
▁מארנונה	-13615
▁באוטובוס	-13616
ברתם	-13617
צלנו	-13618
▁וצי	-13619
▁ליק	-13620
▁תיפ	-13621
פריעו	-13622
▁החרם	-13623
▁וסגן	-13624
▁2021.	-13625
▁הצהרה	-13626
▁לירות	-13627
▁מבחני	-13628
▁שבחרו	-13629
ורתודוק	-13630
▁הצהרות	-13631
▁להתחבר	-13632
▁נוכחות	-13633
▁פגיעות	-13634
▁שנותנת	-13635
▁האזוריות	-13636
בחין	-13637
גריה	-13638
דיקת	-13639
▁מהבי	-13640
▁נרשם	-13641
▁שהשק	-13642
▁אתרים	-13643
▁המידה	-13644
▁המלים	-13645
▁ובהחלט	-13646
▁ולדאוג	-13647
▁יודעות	-13648
▁מלמעלה	-13649
▁300,000	-13650
▁בוודאות	-13651
▁שדיברנו	-13652
▁שהעניין	-13653
800	-13654
וכות	-13655
ומנם	-13656
▁נלק	-13657
▁ומנו	-13658
▁חלפו	-13659
▁עצים	-13660
▁בסיום	-13661
▁ההכשרה	-13662
▁החקלאי	-13663
▁חקלאית	-13664
▁יסודית	-13665
▁עשורים	-13666
▁הצרכנים	-13667
▁שמעוניין	-13668
▁ושת	-13669
▁גדלה	-13670
▁מחצי	-13671
▁חומרי	-13672
▁לעזרה	-13673
▁לפניי	-13674
▁לפרוץ	-13675
▁לשבוע	-13676
▁שממנה	-13677
▁שנולד	-13678
▁תחקיר	-13679
▁בהוצאה	-13680
▁העמותה	-13681
▁בשליחות	-13682
▁להחלטות	-13683
▁למילואים	-13684
ופעת	-13685
חררו	-13686
כחול	-13687
מדינה	-13688
▁חוסן	-13689
▁מגוח	-13690
▁מצבו	-13691
פוטרופ	-13692
צעירים	-13693
▁הרגשה	-13694
▁זכינו	-13695
▁למידה	-13696
▁מפסיק	-13697
▁באשדוד	-13698
▁לדמיין	-13699
▁מהמשטרה	-13700
▁המילואימניקים	-13701
▁נמש	-13702
עברנו	-13703
▁2008	-13704
▁בחרה	-13705
▁טייס	-13706
▁2013.	-13707
▁בקבלת	-13708
▁העסקת	-13709
▁לתקצב	-13710
▁ידידיה	-13711
▁פנימית	-13712
▁ולקר	-13713
▁שברא	-13714
▁נסכים	-13715
▁בכפייה	-13716
▁לראשות	-13717
▁מכתבים	-13718
▁סגורים	-13719
▁אבותינו	-13720
▁מפעילים	-13721
▁מתמטיקה	-13722
▁שנוגעים	-13723
▁מעוניינת	-13724
▁האמריקנית	-13725
צעי	-13726
▁10,	-13727
▁בקר	-13728
▁קוק	-13729
נציות	-13730
▁הציל	-13731
▁הוקמו	-13732
▁חלקית	-13733
▁בעיניו	-13734
▁בפיגוע	-13735
▁מסמכים	-13736
▁שיושבת	-13737
▁האפשרויות	-13738
גנים	-13739
ומעים	-13740
חשבון	-13741
▁הכבד	-13742
▁והבל	-13743
▁ימצא	-13744
▁שונא	-13745
▁דוברי	-13746
▁התוכן	-13747
▁מטרתה	-13748
▁והחברה	-13749
▁ידיעתי	-13750
▁מתמודד	-13751
▁הגזירות	-13752
▁החסינות	-13753
▁המגורים	-13754
▁השותפות	-13755
▁ולהחזיר	-13756
▁רלוונטיים	-13757
ot	-13758
פוח	-13759
▁הכש	-13760
ידרדר	-13761
▁הכנת	-13762
▁השמי	-13763
▁לצרף	-13764
▁מקיף	-13765
▁אחדים	-13766
▁והלאה	-13767
▁הורידו	-13768
▁להתקין	-13769
▁ומכיוון	-13770
▁המיוחדים	-13771
קרו	-13772
פגוע	-13773
▁חוף	-13774
▁חיכ	-13775
▁לרג	-13776
▁שיט	-13777
▁והרג	-13778
▁ינמק	-13779
▁מאמר	-13780
▁פערי	-13781
▁רגוע	-13782
▁שעבד	-13783
▁אלימה	-13784
▁בכותל	-13785
▁גופות	-13786
▁דרוזי	-13787
▁והולך	-13788
▁וחיים	-13789
▁ולבוא	-13790
▁יסכים	-13791
▁כיפור	-13792
▁כפרים	-13793
▁מאושר	-13794
▁ניכנס	-13795
▁שיעלה	-13796
▁הרישום	-13797
▁מרידור	-13798
▁שעוסקת	-13799
▁בריאיון	-13800
▁האיראני	-13801
פיר	-13802
▁56	-13803
-400	-13804
ולין	-13805
▁בחד	-13806
▁נקל	-13807
רגנות	-13808
▁הופת	-13809
▁שגרה	-13810
▁שהסכ	-13811
▁נשמור	-13812
▁במפלגת	-13813
▁ממליצה	-13814
▁מצוינים	-13815
דח	-13816
וונו	-13817
יאשו	-13818
▁במד	-13819
▁רופ	-13820
▁למיל	-13821
▁מחשב	-13822
▁מסגד	-13823
יאליים	-13824
▁הארצי	-13825
▁מכלול	-13826
▁מספרת	-13827
▁שיגיד	-13828
▁תיפול	-13829
▁הנוראה	-13830
▁לגזענות	-13831
▁להשתחרר	-13832
▁סיטואציה	-13833
▁פיננסיים	-13834
▁שהאופוזיציה	-13835
יחור	-13836
קיפה	-13837
▁מפכ	-13838
▁נמד	-13839
▁אחות	-13840
▁מכרי	-13841
▁שאגב	-13842
▁באזרח	-13843
▁המשיך	-13844
▁טבריה	-13845
▁שהדרך	-13846
▁שנהרג	-13847
▁אלימים	-13848
▁הביקור	-13849
▁נפגעות	-13850
▁שהאוצר	-13851
▁הרגולציה	-13852
▁ההזדמנויות	-13853
דילה	-13854
יבוק	-13855
חיראן	-13856
▁לעכב	-13857
▁מנוע	-13858
▁נערך	-13859
▁שטוע	-13860
▁המפתח	-13861
▁מטרים	-13862
▁מרצון	-13863
▁הביקוש	-13864
▁והמשרד	-13865
▁ותיכנס	-13866
▁ידועים	-13867
▁לחוקים	-13868
▁לניהול	-13869
לאם	-13870
נדי	-13871
▁90%	-13872
▁זמנך	-13873
▁לאלת	-13874
▁שייב	-13875
▁שימש	-13876
▁שתיק	-13877
▁כאזרח	-13878
▁לקחנו	-13879
▁מזלזל	-13880
▁רשתות	-13881
▁ובזכות	-13882
▁יצליחו	-13883
▁ציינתי	-13884
▁במשרדים	-13885
▁שלכאורה	-13886
▁שלפנינו	-13887
▁אלקטרוני	-13888
▁הסח	-13889
גמאות	-13890
לוגיה	-13891
▁מנדט	-13892
▁קלים	-13893
יהינום	-13894
▁השורה	-13895
▁ומאות	-13896
▁כפולה	-13897
▁ניתנו	-13898
▁שאליה	-13899
▁20,000	-13900
▁הטובות	-13901
▁המענקים	-13902
▁וביקשתי	-13903
▁מורכבים	-13904
ובר	-13905
ממש	-13906
ריג	-13907
ונתי	-13908
▁כיף	-13909
▁אייל	-13910
▁זכתה	-13911
▁זעקה	-13912
▁מצער	-13913
▁שככה	-13914
▁בקונס	-13915
▁גבייה	-13916
▁הפריע	-13917
▁יתרון	-13918
▁למאות	-13919
▁נעולה	-13920
▁שאכפת	-13921
▁שבזמן	-13922
▁תזכרו	-13923
תייעצות	-13924
▁הרשתות	-13925
▁ובשביל	-13926
▁לקביעת	-13927
▁פשוטות	-13928
▁תהליכי	-13929
▁מינויים	-13930
▁הדיבורים	-13931
▁הפרלמנטרי	-13932
לאי	-13933
▁הלל	-13934
▁ודו	-13935
▁שוד	-13936
▁ושאר	-13937
▁חשיב	-13938
▁מזור	-13939
▁אגודת	-13940
▁הועבר	-13941
▁מנואל	-13942
▁מתקשר	-13943
רקטורים	-13944
▁הקדושה	-13945
▁הריבון	-13946
▁השקלים	-13947
▁ובהמשך	-13948
▁בישיבתה	-13949
▁המחוקקים	-13950
▁התאגידים	-13951
דוס	-13952
ובו	-13953
מיע	-13954
טיקה	-13955
למית	-13956
▁חלי	-13957
▁מעת	-13958
▁הקצה	-13959
▁ומחר	-13960
משרדית	-13961
שוטרים	-13962
▁לאלתר	-13963
▁מנותק	-13964
▁מעמדו	-13965
▁צפויה	-13966
▁שקרוי	-13967
▁להתכנס	-13968
▁רפורמת	-13969
▁שנרצחו	-13970
ולידריות	-13971
▁מתקיימים	-13972
▁המתיישבים	-13973
שוד	-13974
▁שלל	-13975
נגטון	-13976
▁בדגש	-13977
▁להכר	-13978
▁לפחד	-13979
▁חופשה	-13980
▁ללוות	-13981
▁נחשוב	-13982
▁ריבוי	-13983
▁מפריעה	-13984
?"	-13985
מנתי	-13986
▁אוטו	-13987
▁המלח	-13988
▁שכפי	-13989
▁במעגל	-13990
▁מונעת	-13991
▁נסיים	-13992
▁קיצור	-13993
▁העמידה	-13994
▁ותועבר	-13995
▁כספיים	-13996
▁כרטיסי	-13997
▁שותקים	-13998
▁שיגיעו	-13999
▁הרגישות	-14000
▁העיקריים	-14001
יסר	-14002
▁החס	-14003
רויות	-14004
▁בלחץ	-14005
▁החזק	-14006
▁ובמש	-14007
▁שאוה	-14008
▁באהבה	-14009
▁בחינם	-14010
▁הברכה	-14011
▁חזקות	-14012
▁כחברת	-14013
▁עמונה	-14014
▁בפגיעה	-14015
▁גיליתי	-14016
▁המסקנה	-14017
▁הסכימה	-14018
▁מקיימת	-14019
▁שמחייב	-14020
▁באשקלון	-14021
▁הצוותים	-14022
▁ולהודות	-14023
▁בסיטואציה	-14024
לחה	-14025
ודשת	-14026
וויץ	-14027
יועדת	-14028
נקציה	-14029
▁לשות	-14030
▁מנוס	-14031
▁שמתח	-14032
▁ויודע	-14033
▁יגרום	-14034
▁עמדנו	-14035
▁בשאלות	-14036
▁לשכבות	-14037
▁מתושבי	-14038
▁האמורים	-14039
▁הרביעית	-14040
▁שמגיעות	-14041
▁הניסיונות	-14042
בטחת	-14043
▁אקח	-14044
▁שצי	-14045
וויטר	-14046
שלומים	-14047
▁הוסרו	-14048
▁ונוכל	-14049
▁ונמצא	-14050
▁חישוב	-14051
▁טועים	-14052
▁לפצות	-14053
▁סובלת	-14054
▁קליטת	-14055
▁תיקחו	-14056
ליארדים	-14057
▁הדוחות	-14058
▁לנקודה	-14059
▁מעמיקה	-14060
▁שידורי	-14061
▁שנועדה	-14062
▁שקורים	-14063
▁בעיקרון	-14064
▁ומשפחות	-14065
▁האוטובוס	-14066
▁הריכוזיות	-14067
400	-14068
יפך	-14069
נהגת	-14070
▁לטר	-14071
▁דואר	-14072
▁הנהג	-14073
▁העני	-14074
▁והער	-14075
▁וליל	-14076
▁להיג	-14077
▁באפשר	-14078
▁מיועד	-14079
פרטהייד	-14080
▁הזכאים	-14081
▁חתומים	-14082
▁להצדיק	-14083
▁מאבקים	-14084
▁מההתחלה	-14085
us	-14086
ירן	-14087
▁ומז	-14088
▁בקטע	-14089
▁מהתק	-14090
▁כשראש	-14091
▁מאוזן	-14092
▁משולב	-14093
▁משורת	-14094
▁עבורו	-14095
▁עולות	-14096
▁האישום	-14097
▁ושירות	-14098
▁לחלשים	-14099
▁למועצה	-14100
▁שהגישו	-14101
▁השידורים	-14102
▁בהתמודדות	-14103
אוי	-14104
סיט	-14105
יצוץ	-14106
▁הפנס	-14107
▁שהוס	-14108
▁שחסר	-14109
▁2008,	-14110
▁חריגה	-14111
▁יצאתי	-14112
▁כיסוי	-14113
▁מחזיר	-14114
▁מקומי	-14115
▁ציינת	-14116
▁תקראו	-14117
▁ההייטק	-14118
▁הנזקים	-14119
▁להתפתח	-14120
▁משימות	-14121
▁קיומנו	-14122
▁ההיבטים	-14123
▁לשוטרים	-14124
▁מתחייבת	-14125
▁פרסונלי	-14126
ולד	-14127
קעו	-14128
▁st	-14129
ייבר	-14130
▁וכא	-14131
וררים	-14132
▁באור	-14133
▁לרמה	-14134
▁מולי	-14135
▁משקף	-14136
▁עוקב	-14137
▁שולל	-14138
▁דומות	-14139
▁הנכות	-14140
▁התחלת	-14141
▁וביום	-14142
▁יוביל	-14143
▁הבקשות	-14144
▁פסיכיא	-14145
▁שבעזרת	-14146
▁שמספרה	-14147
▁אמיתיות	-14148
▁הרישיון	-14149
▁פליליים	-14150
▁דיפרנציאלי	-14151
▁גט	-14152
▁אקט	-14153
▁והמצ	-14154
▁ירדה	-14155
▁מצאה	-14156
▁נבקש	-14157
▁נייר	-14158
▁נפשו	-14159
▁סלול	-14160
▁אודות	-14161
▁מהמצב	-14162
פורמציה	-14163
▁בעבירה	-14164
▁וטובים	-14165
▁ופגיעה	-14166
▁להקדים	-14167
▁מבטיחה	-14168
▁הרלוונט	-14169
▁היהודיות	-14170
דונו	-14171
▁עצה	-14172
וצרים	-14173
▁הרעש	-14174
▁חווה	-14175
▁כדלק	-14176
▁להית	-14177
▁שורש	-14178
▁ואילך	-14179
▁ולהגן	-14180
▁חזרנו	-14181
▁חיפוש	-14182
▁שהגיש	-14183
▁תינתן	-14184
▁הברורה	-14185
▁התקצוב	-14186
▁להגשים	-14187
▁להתפטר	-14188
▁מאיימים	-14189
-90	-14190
מכר	-14191
קאסם	-14192
רצון	-14193
▁31(	-14194
▁ציו	-14195
▁מקשה	-14196
▁עולי	-14197
▁1,500	-14198
▁בחדרי	-14199
▁ולגבי	-14200
▁יכולתם	-14201
▁להרחבת	-14202
▁פטורים	-14203
▁מעודדים	-14204
דיח	-14205
▁חב	-14206
▁כוס	-14207
▁מלו	-14208
▁יפים	-14209
▁שייע	-14210
▁שליח	-14211
▁בצומת	-14212
▁הארכה	-14213
▁מהזמן	-14214
▁פינטו	-14215
▁30,000	-14216
▁אוכלים	-14217
▁הייצור	-14218
▁הפתיחה	-14219
▁וטיפול	-14220
▁ספורים	-14221
▁שבימים	-14222
▁ולצערנו	-14223
▁מנותקים	-14224
▁שפוגעים	-14225
1)	-14226
רהט	-14227
שון	-14228
▁13,	-14229
▁ליפ	-14230
▁אעלה	-14231
▁במוש	-14232
▁וואו	-14233
▁לאחת	-14234
▁שולט	-14235
▁שכחו	-14236
▁בלעדי	-14237
▁זלזול	-14238
▁מבוסס	-14239
▁מוסכם	-14240
▁מכספי	-14241
▁פירון	-14242
▁גילינו	-14243
רקטוריון	-14244
▁והלוואי	-14245
▁מצטרפים	-14246
▁תיב	-14247
▁בוער	-14248
▁הפלי	-14249
▁לשדר	-14250
▁2009.	-14251
▁בעצמך	-14252
▁הפיכה	-14253
▁יוזמת	-14254
▁תמריץ	-14255
▁בוחנים	-14256
▁התפילה	-14257
▁כדלקמן	-14258
▁מבוססת	-14259
▁חינוכית	-14260
זיל	-14261
כבר	-14262
▁1.5	-14263
▁שבט	-14264
▁אריק	-14265
▁בעדה	-14266
▁גורף	-14267
▁המיט	-14268
▁נגיש	-14269
▁שעסק	-14270
▁עתירה	-14271
▁שעבדו	-14272
▁המערכה	-14273
▁ולהציג	-14274
▁נובמבר	-14275
▁עצומים	-14276
▁צעירות	-14277
▁בשאילתה	-14278
▁האויבים	-14279
▁שהתשובה	-14280
▁שמתייחס	-14281
יקף	-14282
טטוט	-14283
▁אגרה	-14284
▁אסתר	-14285
▁ומבי	-14286
▁נקים	-14287
▁נתקן	-14288
▁תלמד	-14289
▁הוכיח	-14290
▁ותראו	-14291
▁יוצרת	-14292
▁יציבה	-14293
▁פופול	-14294
▁שהעלה	-14295
▁שהגשתי	-14296
▁בטרומית	-14297
▁התקיימו	-14298
▁שההחלטה	-14299
▁צא	-14300
▁תוב	-14301
סטיים	-14302
▁והנו	-14303
▁ושמע	-14304
▁מחיה	-14305
▁נדיר	-14306
▁להסתדר	-14307
▁מצטרפת	-14308
▁שבזכות	-14309
▁מדיניים	-14310
▁ציבורים	-14311
▁באירועים	-14312
ודקת	-14313
מצית	-14314
מקדש	-14315
פעלת	-14316
ציית	-14317
שרון	-14318
▁ילי	-14319
חיפות	-14320
▁דמות	-14321
▁הלבן	-14322
▁הקנס	-14323
▁כשדי	-14324
▁קמים	-14325
לוננים	-14326
▁אימוץ	-14327
▁הכספי	-14328
▁לבסוף	-14329
▁לחמאס	-14330
▁ממשית	-14331
▁סגירה	-14332
▁שיקבע	-14333
▁אגורות	-14334
▁הסוציו	-14335
▁הצטרפו	-14336
▁בתפקידו	-14337
▁העירוני	-14338
▁התופעות	-14339
▁קילומטרים	-14340
ואם	-14341
כינות	-14342
▁לבעל	-14343
▁נורב	-14344
▁חלופה	-14345
▁ידינו	-14346
▁לשתוק	-14347
▁המתאים	-14348
▁הרביעי	-14349
▁להרחיק	-14350
▁לסגנית	-14351
▁השבועות	-14352
ספו	-14353
גשתי	-14354
▁גיב	-14355
▁וטי	-14356
▁נלמד	-14357
▁סיור	-14358
▁שמוס	-14359
▁תסיים	-14360
▁ולשנות	-14361
▁בנתונים	-14362
▁הישרדות	-14363
▁מאוחדים	-14364
▁שירושלים	-14365
▁הממשלתיים	-14366
בתם	-14367
מידע	-14368
▁גמל	-14369
▁נרד	-14370
לווים	-14371
▁גאלב	-14372
▁ההתא	-14373
▁לבטא	-14374
▁מכנה	-14375
▁בחייו	-14376
▁הפוכה	-14377
▁נושאי	-14378
▁נציין	-14379
▁שמנהל	-14380
▁שתדעו	-14381
ינשטיין	-14382
▁בחייהם	-14383
▁הדיווח	-14384
▁ניירות	-14385
▁שמטרתה	-14386
-10%	-14387
▁לזל	-14388
▁נאה	-14389
▁לשעת	-14390
▁שוות	-14391
▁שמצד	-14392
▁תורן	-14393
▁האשמה	-14394
▁הרדיו	-14395
▁פירוק	-14396
▁תכנים	-14397
▁אקדמיים	-14398
▁ובעקבות	-14399
▁אוניברסיטה	-14400
פכ	-14401
▁,	-14402
בדי	-14403
גידה	-14404
▁עתק	-14405
▁ניצח	-14406
▁המפקח	-14407
▁הערוץ	-14408
▁מפנים	-14409
▁משלחת	-14410
▁קשרים	-14411
▁בטייבה	-14412
▁היעדים	-14413
▁ולהקים	-14414
▁עבורנו	-14415
▁ביחידות	-14416
▁תנחומים	-14417
▁האמיתיות	-14418
▁תנ	-14419
▁לסת	-14420
▁לשל	-14421
יומית	-14422
▁לכדי	-14423
▁משלו	-14424
▁פעלה	-14425
▁במכתב	-14426
▁הנייר	-14427
▁הקימה	-14428
▁הרבות	-14429
▁רוחבי	-14430
▁שנגרם	-14431
▁ותרבות	-14432
▁להמציא	-14433
▁לעזאזל	-14434
▁מוקדמת	-14435
▁מרכיבים	-14436
מדנו	-14437
▁בקי	-14438
▁שפו	-14439
ריסות	-14440
▁המכס	-14441
▁ולהפ	-14442
▁שווי	-14443
▁דבריה	-14444
▁ואינו	-14445
▁והפעם	-14446
▁כהצעה	-14447
▁מהצבא	-14448
▁סיפרו	-14449
▁שנאבק	-14450
▁אופנוע	-14451
▁האקדמי	-14452
▁העיתון	-14453
▁וחברתי	-14454
▁ומערכת	-14455
▁יתומים	-14456
▁להישגים	-14457
▁למחבלים	-14458
▁קיצוצים	-14459
▁תמריצים	-14460
▁הפיצויים	-14461
▁זרק	-14462
▁מנע	-14463
▁אקבל	-14464
▁אראה	-14465
▁דינו	-14466
▁הישר	-14467
▁זועק	-14468
▁משיח	-14469
▁ששמו	-14470
▁ברצון	-14471
▁ואינם	-14472
▁לחסום	-14473
▁לשתות	-14474
▁מישהי	-14475
▁במגוון	-14476
▁למיעוט	-14477
▁פיניאן	-14478
▁בראשותי	-14479
▁פליליות	-14480
פוץ	-14481
עדכן	-14482
▁ספור	-14483
▁סטטוס	-14484
▁אוחיון	-14485
▁בימינו	-14486
▁ההערכה	-14487
▁הנכסים	-14488
▁להגברת	-14489
▁ואזרחים	-14490
▁שלוקחים	-14491
גבר	-14492
פינו	-14493
▁הרף	-14494
וצרות	-14495
▁הפסח	-14496
▁חיסול	-14497
▁כנציג	-14498
▁לדרום	-14499
▁מענים	-14500
▁הצלחתם	-14501
▁מתשלום	-14502
▁סבורים	-14503
▁בדימונה	-14504
▁הגיונית	-14505
▁ובריאות	-14506
▁לחקלאים	-14507
▁מושחתים	-14508
▁ההשתמטות	-14509
מג	-14510
ופף	-14511
כללה	-14512
ריאל	-14513
דונים	-14514
כלכלי	-14515
▁ההרג	-14516
▁חייה	-14517
▁ישנן	-14518
▁למשול	-14519
▁מהדבר	-14520
▁מפחיד	-14521
▁משתדל	-14522
▁פתיחה	-14523
▁שתיתן	-14524
▁במקומה	-14525
▁מבתיהם	-14526
▁שמדינה	-14527
▁האופציה	-14528
▁המבקשים	-14529
▁לחקלאות	-14530
▁שיפוטית	-14531
סאם	-14532
▁הצפו	-14533
▁מדור	-14534
▁מרשם	-14535
▁אשדוד	-14536
▁בוצעו	-14537
▁המפות	-14538
▁כיבוי	-14539
▁לבלום	-14540
▁בשימוש	-14541
▁הגאווה	-14542
▁ולחזור	-14543
▁לשמירה	-14544
▁מתקבלת	-14545
▁סולידריות	-14546
זקה	-14547
טלו	-14548
דירו	-14549
פטרו	-14550
▁הדל	-14551
▁בצפת	-14552
▁הנחת	-14553
▁מאוז	-14554
▁קרבי	-14555
▁תקבע	-14556
▁גרועה	-14557
▁הבירה	-14558
▁ייפול	-14559
▁מראשי	-14560
▁שירצה	-14561
▁והמשפט	-14562
▁זועקים	-14563
▁מהרשות	-14564
▁איזונים	-14565
▁בעיצומו	-14566
9%	-14567
בערה	-14568
▁הנב	-14569
▁שרו	-14570
▁הכיר	-14571
▁הצלה	-14572
▁חרמש	-14573
▁מוני	-14574
▁שמיי	-14575
יבוצים	-14576
▁בוגרי	-14577
▁הוריו	-14578
▁הזעקה	-14579
▁הרווי	-14580
▁שכחתי	-14581
▁ההקפאה	-14582
▁המדובר	-14583
▁להתקשר	-14584
▁לערכים	-14585
▁לתפארת	-14586
▁תעסוקת	-14587
▁המינהלי	-14588
▁כאזרחים	-14589
▁לקבוצות	-14590
▁ביב	-14591
▁הבדי	-14592
▁והעם	-14593
▁וניס	-14594
▁רצים	-14595
▁שנקב	-14596
▁אביחי	-14597
▁ההישג	-14598
▁מסובך	-14599
▁סקטור	-14600
▁תעופה	-14601
▁הכהונה	-14602
▁הקווים	-14603
▁מהימין	-14604
▁מצביעה	-14605
▁אפקטיבי	-14606
▁בתפקידי	-14607
▁המיקרופון	-14608
קוד	-14609
▁אוג	-14610
▁הצר	-14611
ורגנת	-14612
ורדים	-14613
נצלות	-14614
▁לנזק	-14615
▁לסמן	-14616
▁לסקי	-14617
▁מודא	-14618
▁עצרו	-14619
ליבסטר	-14620
▁האמין	-14621
▁הנשמה	-14622
▁פירוט	-14623
▁קרובה	-14624
▁שמשלם	-14625
▁נציגות	-14626
▁שולטים	-14627
▁היציבות	-14628
▁העשירים	-14629
▁לגורמים	-14630
▁מאתיופיה	-14631
▁באוטובוסים	-14632
לד	-14633
▁האז	-14634
▁מאס	-14635
סטיות	-14636
▁גבעת	-14637
▁הכנה	-14638
▁להתנ	-14639
▁מאוי	-14640
▁מציל	-14641
▁שהלך	-14642
▁שיתק	-14643
▁השחור	-14644
▁השיחה	-14645
▁נשארה	-14646
▁בקיבוץ	-14647
▁בראייה	-14648
▁לפרטים	-14649
▁ישראליות	-14650
-23	-14651
ome	-14652
זעת	-14653
לבת	-14654
גשוג	-14655
▁מצע	-14656
ביבות	-14657
עוררו	-14658
▁בפור	-14659
▁הפסק	-14660
▁התלב	-14661
▁נשמח	-14662
▁בסכנת	-14663
▁המסמך	-14664
▁הפסוק	-14665
▁ולקרוא	-14666
▁ולשאול	-14667
▁מנקודת	-14668
▁מרכזית	-14669
▁שאיבדו	-14670
▁אבסורדי	-14671
▁הבחינות	-14672
▁הקורבנות	-14673
וול	-14674
ורצ	-14675
כסוך	-14676
▁הלח	-14677
▁ממא	-14678
▁בזאת	-14679
▁כלכל	-14680
▁מזהה	-14681
▁שמוצ	-14682
▁בימין	-14683
▁האצבע	-14684
▁הדרוש	-14685
▁המערך	-14686
▁המפקד	-14687
▁לגביו	-14688
▁להוות	-14689
▁סוגים	-14690
▁בבידוד	-14691
▁הפינוי	-14692
▁ולעתים	-14693
▁למימון	-14694
▁ביישובי	-14695
▁לרופאים	-14696
▁הסיטואציה	-14697
ננתי	-14698
רכבת	-14699
▁ורב	-14700
ביכול	-14701
▁בסוג	-14702
▁לעני	-14703
▁מבול	-14704
▁מהסכ	-14705
▁הנאשם	-14706
▁ונתנו	-14707
▁לעורר	-14708
▁מדרגה	-14709
▁מושלם	-14710
▁מתחבר	-14711
▁לקליטת	-14712
▁מהדוכן	-14713
▁מקדימה	-14714
▁שהורשע	-14715
▁בנוכחות	-14716
▁הנשיאות	-14717
▁ולהסביר	-14718
חסום	-14719
ניון	-14720
רונת	-14721
▁בגז	-14722
▁ותש	-14723
לילים	-14724
מיכות	-14725
▁באגף	-14726
▁ברצף	-14727
▁הדעה	-14728
▁מהפר	-14729
▁שהפך	-14730
▁תפסו	-14731
▁המתאר	-14732
▁כמיטב	-14733
▁נוראי	-14734
▁תוסיף	-14735
▁בשמירה	-14736
▁ולתמוך	-14737
▁להחמיר	-14738
▁תתחילו	-14739
▁לרפורמה	-14740
▁המרכזיות	-14741
▁והאלימות	-14742
▁חכ	-14743
יגות	-14744
▁לסל	-14745
▁קלות	-14746
▁ימצאו	-14747
▁מתנות	-14748
▁במעשים	-14749
▁השילוב	-14750
▁להפעלת	-14751
▁מראענה	-14752
▁מהעובדה	-14753
▁מסבירים	-14754
ent	-14755
פועל	-14756
▁גשר	-14757
▁דמם	-14758
▁וטו	-14759
כונית	-14760
מאללה	-14761
▁פינס	-14762
▁האיבה	-14763
▁הדמים	-14764
▁פעולת	-14765
▁רעידת	-14766
▁שעמדו	-14767
▁ולבדוק	-14768
▁ולמצוא	-14769
▁מבקרים	-14770
▁בגזענות	-14771
▁בריטניה	-14772
יננו	-14773
▁ועצ	-14774
▁חפץ	-14775
▁לפח	-14776
▁מעון	-14777
▁מקצה	-14778
▁בחורה	-14779
▁ישמור	-14780
▁לגדול	-14781
▁נלחמת	-14782
▁נרצחה	-14783
▁תגמול	-14784
▁ההריסה	-14785
▁וגברים	-14786
▁ליהודי	-14787
▁בנחישות	-14788
▁בפעולות	-14789
▁וכתוצאה	-14790
▁ממתינים	-14791
דג	-14792
ידא	-14793
שהם	-14794
וטלו	-14795
יקוד	-14796
מידר	-14797
▁הוח	-14798
▁אדמת	-14799
▁בבור	-14800
▁בדלת	-14801
▁בוצע	-14802
▁הנות	-14803
▁נפצע	-14804
▁נתתם	-14805
▁בסיעת	-14806
▁וחומר	-14807
▁ולתקן	-14808
▁יחדיו	-14809
▁נעצרו	-14810
▁שירלי	-14811
▁תעריף	-14812
ידרדרות	-14813
▁בהתחשב	-14814
▁מוצדקת	-14815
▁כשלעצמו	-14816
וטר	-14817
יצד	-14818
מלת	-14819
שאת	-14820
ותנו	-14821
זרית	-14822
▁מפח	-14823
▁פונ	-14824
▁רפי	-14825
שורתי	-14826
▁בחופ	-14827
▁שנפל	-14828
▁אונים	-14829
▁הנפשי	-14830
▁ובואו	-14831
▁מואטי	-14832
▁ניתוק	-14833
▁בנושאי	-14834
▁ולפגוע	-14835
▁להסמיך	-14836
▁ממערכת	-14837
▁שקיבלה	-14838
▁תחילתו	-14839
▁תעבירו	-14840
▁בוויכוח	-14841
▁העבודות	-14842
▁החיסונים	-14843
וקרה	-14844
יהוי	-14845
כבדו	-14846
▁מחמ	-14847
פסלים	-14848
שלנות	-14849
▁שרצה	-14850
▁תקוע	-14851
▁הציעו	-14852
▁לבתים	-14853
▁מאנשי	-14854
▁פקודה	-14855
▁פרישה	-14856
שינגטון	-14857
▁ההגירה	-14858
▁הכבאות	-14859
▁ייפגעו	-14860
▁מעריכה	-14861
▁פרשנות	-14862
▁בעיצומה	-14863
▁לעשירים	-14864
▁מבחינתם	-14865
▁66	-14866
▁הדה	-14867
▁מקב	-14868
ופיים	-14869
חרונה	-14870
▁למים	-14871
▁מרחק	-14872
▁נירה	-14873
▁שיזם	-14874
▁בלשכת	-14875
▁דוחים	-14876
▁חוקקה	-14877
▁ליפול	-14878
▁נטייה	-14879
▁שהצבא	-14880
▁אומנות	-14881
▁חוזרות	-14882
▁להינשא	-14883
▁לשאלות	-14884
▁עירייה	-14885
▁שוחחתי	-14886
▁תתייחס	-14887
ייף	-14888
בתים	-14889
כיבי	-14890
▁העמ	-14891
▁זהב	-14892
בקרים	-14893
▁אנצל	-14894
▁מבוק	-14895
▁מכסה	-14896
▁ששלח	-14897
▁המעטה	-14898
▁הנהגת	-14899
▁רוחמה	-14900
▁התנגדו	-14901
▁להפסיד	-14902
▁שמייצג	-14903
▁שתבינו	-14904
▁לגבולות	-14905
לץ	-14906
יזם	-14907
▁2022	-14908
▁והחז	-14909
▁מבטל	-14910
▁מתנצ	-14911
▁כמונו	-14912
▁לאילת	-14913
▁לתואר	-14914
▁בחינות	-14915
▁בתמורה	-14916
▁מרכזים	-14917
▁אסטרטגיים	-14918
▁ההתיישנות	-14919
▁צמ	-14920
מנעו	-14921
▁לאנ	-14922
▁פלד	-14923
קטטור	-14924
▁היבט	-14925
▁יזכו	-14926
▁להוז	-14927
▁מהאי	-14928
▁סדיר	-14929
▁אמיצה	-14930
▁האקדמ	-14931
▁לשיטת	-14932
▁נפתחו	-14933
▁בתשובת	-14934
▁ולשמוע	-14935
▁לתאגיד	-14936
▁סיפרתי	-14937
▁עירוני	-14938
▁והולכים	-14939
▁והתרבות	-14940
▁לפצועים	-14941
▁מנגנוני	-14942
▁סוציאלית	-14943
גבור	-14944
▁וגר	-14945
▁לקט	-14946
▁שתש	-14947
▁נמרץ	-14948
▁בתמוז	-14949
▁דרכון	-14950
▁הרבני	-14951
▁יעבדו	-14952
▁לסיעת	-14953
▁מוצאת	-14954
▁משרדו	-14955
▁שנפלו	-14956
▁ומדובר	-14957
▁ותעבור	-14958
▁ראשונת	-14959
▁שפתאום	-14960
▁מאשימים	-14961
▁תאגידים	-14962
▁וקואליציה	-14963
אבר	-14964
יתת	-14965
קסים	-14966
▁גלו	-14967
▁דיל	-14968
▁כמח	-14969
▁אחריך	-14970
▁באמון	-14971
▁ההמשך	-14972
▁לנוער	-14973
▁נוותר	-14974
▁למסלול	-14975
▁שנהרגו	-14976
▁בעובדים	-14977
▁המחוזית	-14978
▁מהרשימה	-14979
▁באוכלוסיות	-14980
לנד	-14981
▁זמ	-14982
יהודה	-14983
▁אוזן	-14984
▁בטבת	-14985
▁בשער	-14986
▁חסות	-14987
▁לחצי	-14988
▁עצור	-14989
דמוקרט	-14990
▁החוקי	-14991
▁התנאי	-14992
▁שמעבר	-14993
▁תוקפו	-14994
▁הדחופה	-14995
▁הוספתי	-14996
▁הקרדיט	-14997
▁וחבריו	-14998
▁מתפקדת	-14999
▁האיזונים	-15000
▁לתוכניות	-15001
▁משיקולים	-15002
▁i	-15003
▁תפס	-15004
בטאות	-15005
בקשתי	-15006
כתבים	-15007
עייתו	-15008
▁ומשם	-15009
▁תמכו	-15010
▁תקרת	-15011
▁החזקה	-15012
▁השראה	-15013
▁פרטנר	-15014
▁המזרחי	-15015
▁לתשלום	-15016
▁שהעלית	-15017
▁שכירות	-15018
▁בשבילנו	-15019
וחו	-15020
פחתו	-15021
פינה	-15022
▁נסע	-15023
▁סוח	-15024
מצאות	-15025
נגדים	-15026
▁אשתי	-15027
▁המתח	-15028
▁וכיו	-15029
▁יפעל	-15030
▁מבזה	-15031
▁עמרם	-15032
ירועים	-15033
▁דוגמת	-15034
▁חוצפה	-15035
▁כלפון	-15036
▁לפניך	-15037
▁מכשול	-15038
▁פשרות	-15039
▁שלוקח	-15040
▁הרוחות	-15041
▁זכותנו	-15042
▁כשצריך	-15043
▁מחברות	-15044
▁הגבוהים	-15045
▁הקשורים	-15046
▁התאחדות	-15047
▁מפסיקים	-15048
▁שההורים	-15049
▁העיתונים	-15050
▁אידיאולוגי	-15051
ולר	-15052
ופיע	-15053
▁ונד	-15054
▁ידם	-15055
▁לסח	-15056
טויות	-15057
נועים	-15058
▁אבתי	-15059
▁בהצה	-15060
▁הנפט	-15061
▁הערת	-15062
▁אישים	-15063
▁ארצנו	-15064
▁בעמוד	-15065
▁הנאצי	-15066
▁הרשמי	-15067
▁חזרתי	-15068
▁חריפה	-15069
▁עבורי	-15070
▁עיקרי	-15071
▁עמדתם	-15072
▁שמבין	-15073
▁תעודה	-15074
▁40,000	-15075
▁במתווה	-15076
▁מאוחרת	-15077
▁עיניהם	-15078
▁שהשתתפו	-15079
▁המחלוקות	-15080
▁הסוציאלי	-15081
פתה	-15082
-198	-15083
ופיה	-15084
נחים	-15085
▁סגל	-15086
▁תלם	-15087
▁בחיל	-15088
▁בעדו	-15089
▁כניס	-15090
▁לכלי	-15091
▁טכנית	-15092
▁מרינה	-15093
▁הגירוש	-15094
▁היומיו	-15095
▁המכפלה	-15096
▁להבחין	-15097
▁מדברות	-15098
▁שמלווה	-15099
▁שנכנסו	-15100
▁הניקיון	-15101
▁המקצועיות	-15102
▁ותס	-15103
▁מדם	-15104
▁ריח	-15105
▁שהז	-15106
▁בימת	-15107
▁יוזם	-15108
▁יועז	-15109
▁להצט	-15110
▁מכפר	-15111
▁בהרכב	-15112
▁האדיר	-15113
▁המונו	-15114
▁וברוך	-15115
▁ליווי	-15116
▁לרופא	-15117
▁האפשרי	-15118
▁הנגישות	-15119
▁ושוויון	-15120
▁שבוודאי	-15121
לטת	-15122
▁ונג	-15123
▁שבצ	-15124
ושעים	-15125
▁בפרס	-15126
▁חלוק	-15127
▁כוחו	-15128
▁שהוז	-15129
▁שהחל	-15130
▁שסוף	-15131
טורקיה	-15132
▁בשיטת	-15133
▁הפכנו	-15134
▁וזכות	-15135
▁עילית	-15136
▁שברור	-15137
▁שפועל	-15138
▁שתומך	-15139
▁תוביל	-15140
▁תמורה	-15141
▁באמצעי	-15142
▁חיצוני	-15143
▁להורדת	-15144
▁מגרשים	-15145
▁נזקקים	-15146
▁ודיברנו	-15147
▁ומקבלים	-15148
▁להתלונן	-15149
▁מתמודדת	-15150
מצו	-15151
פוג	-15152
אלצו	-15153
רונם	-15154
▁בקט	-15155
▁עטר	-15156
▁תמש	-15157
וספות	-15158
▁אתרי	-15159
▁הסמו	-15160
▁לסבר	-15161
▁עשוי	-15162
▁רמות	-15163
▁שקוף	-15164
▁אעביר	-15165
▁אשכול	-15166
▁בברית	-15167
▁המוכר	-15168
▁חלופי	-15169
▁עניתי	-15170
▁ההכרעה	-15171
▁הירידה	-15172
▁למימוש	-15173
▁מוכנות	-15174
▁מציינת	-15175
▁שבכנסת	-15176
▁שכולות	-15177
▁אישורים	-15178
▁למפלגות	-15179
▁החינוכית	-15180
▁העקרונית	-15181
ארכה	-15182
▁ותצ	-15183
▁טען	-15184
▁שמד	-15185
▁הדרת	-15186
▁עמוס	-15187
▁פתחו	-15188
▁אלמנט	-15189
▁ועולה	-15190
▁כנדרש	-15191
▁שלקחו	-15192
▁תקינה	-15193
▁בהעברת	-15194
▁הידיעה	-15195
▁הסלולר	-15196
▁ראויות	-15197
▁תעריפי	-15198
יאוגרפית	-15199
▁שבעקבות	-15200
-31	-15201
אוס	-15202
פרת	-15203
מיון	-15204
פתיה	-15205
תימה	-15206
▁נדה	-15207
▁כבני	-15208
▁מגרש	-15209
▁מייש	-15210
▁שהבא	-15211
דרונות	-15212
▁האגרה	-15213
▁המשמר	-15214
▁מטלון	-15215
▁מכסות	-15216
▁שתביא	-15217
▁בוארון	-15218
▁בשנייה	-15219
▁לתוצאה	-15220
▁מחזקים	-15221
▁אבתיסאם	-15222
▁בשבילכם	-15223
שיזם	-15224
▁מהז	-15225
▁רכש	-15226
ומנות	-15227
▁שבסך	-15228
▁בירור	-15229
▁דמוגר	-15230
▁וסרמן	-15231
▁לקוות	-15232
▁מטעמי	-15233
▁משווה	-15234
▁שהזמן	-15235
▁תלמדו	-15236
▁בהרחבה	-15237
▁ולהשיב	-15238
▁לגביהם	-15239
▁להנהיג	-15240
▁מחלקות	-15241
▁פגישות	-15242
▁בעיתונים	-15243
▁הכיוונים	-15244
▁הפרויקטים	-15245
▁ובינוניים	-15246
ארתי	-15247
ערות	-15248
▁בסג	-15249
▁גיד	-15250
▁ובן	-15251
▁חמץ	-15252
▁לרו	-15253
▁פיס	-15254
ולוגי	-15255
ופסור	-15256
▁חוקר	-15257
▁חריף	-15258
▁משתד	-15259
▁שאחת	-15260
▁אימים	-15261
▁הקובע	-15262
▁כבודה	-15263
▁נמצאו	-15264
▁פרנקל	-15265
▁תוחלת	-15266
▁בשלבים	-15267
▁היישום	-15268
▁ואנוכי	-15269
▁ושיקום	-15270
▁מעורבת	-15271
▁היחידות	-15272
▁השואלים	-15273
▁מועסקים	-15274
▁שבעניין	-15275
▁המבוגרים	-15276
▁כשבועיים	-15277
▁אידיאולוגית	-15278
▁הפרלמנטריים	-15279
שד	-15280
קתי	-15281
חוקי	-15282
נוכה	-15283
נצחת	-15284
▁כבן	-15285
צרכים	-15286
▁זיקה	-15287
▁פסוק	-15288
▁תפגע	-15289
▁תרתי	-15290
ובדנות	-15291
▁במערב	-15292
▁ונאמר	-15293
▁ליזום	-15294
▁לכביש	-15295
▁לפרנס	-15296
▁בייחוד	-15297
▁ולעזור	-15298
▁להחרים	-15299
▁פותרים	-15300
▁פרובוק	-15301
▁שמחזיק	-15302
וחח	-15303
כחש	-15304
מיתי	-15305
▁15,	-15306
▁מצטי	-15307
▁רונן	-15308
▁השרפה	-15309
▁להזיז	-15310
▁לערוץ	-15311
▁מתפלל	-15312
▁נדונה	-15313
▁הגבורה	-15314
▁ההוכחה	-15315
▁חשופים	-15316
▁לברכות	-15317
▁למשרדי	-15318
▁מסיתים	-15319
▁והתשובה	-15320
▁ישראליים	-15321
חסן	-15322
▁1%	-15323
גודל	-15324
מטים	-15325
▁בשאר	-15326
▁הסרת	-15327
▁ומסת	-15328
▁חברו	-15329
▁כבדה	-15330
▁יצוקה	-15331
▁ניכרת	-15332
▁עמדתך	-15333
▁ההמלצה	-15334
▁הזויים	-15335
▁הצווים	-15336
▁מוגנים	-15337
▁תיירים	-15338
▁שסובלים	-15339
▁רישיונות	-15340
▁ביטחוניות	-15341
ובס	-15342
▁חדה	-15343
יעורי	-15344
▁לתוק	-15345
▁מיוצ	-15346
▁במערך	-15347
▁הכריז	-15348
▁התורן	-15349
▁לדייק	-15350
▁עניות	-15351
▁שתעשה	-15352
▁הנהיגה	-15353
▁הראיות	-15354
▁ובגליל	-15355
▁מאוחדת	-15356
▁קבועים	-15357
▁שקראתי	-15358
▁בחודשיים	-15359
▁x	-15360
▁72	-15361
▁גיר	-15362
▁לוב	-15363
▁תשא	-15364
וממות	-15365
נחנים	-15366
▁בהנח	-15367
▁הדדי	-15368
▁המזו	-15369
▁ונשא	-15370
▁חיוב	-15371
▁לתאם	-15372
▁בוחרת	-15373
▁בשעתו	-15374
▁הבראה	-15375
▁לזכרו	-15376
▁מחברת	-15377
▁מחלקה	-15378
▁תבדקו	-15379
▁חוגגים	-15380
▁הפרשנות	-15381
▁הרווחים	-15382
▁עסא	-15383
גדלים	-15384
▁הקטע	-15385
▁מגדל	-15386
▁מגפה	-15387
▁נקדם	-15388
▁עורף	-15389
▁שמשק	-15390
▁העסקי	-15391
▁הפרטה	-15392
▁ללחוץ	-15393
▁מבצעת	-15394
▁ממעגל	-15395
▁נסגרו	-15396
▁אחרונת	-15397
▁בתחנות	-15398
▁הפניות	-15399
▁מסירים	-15400
▁קודמים	-15401
▁שחלילה	-15402
▁200,000	-15403
▁הנוסעים	-15404
▁מדהימים	-15405
▁שיכולות	-15406
מנא	-15407
ומתם	-15408
ידיש	-15409
סטיב	-15410
פוטי	-15411
▁רשם	-15412
▁מסית	-15413
▁נחשף	-15414
▁אפללו	-15415
▁במלים	-15416
▁הפליה	-15417
▁מונחת	-15418
▁משלים	-15419
▁אנגלית	-15420
▁בעשייה	-15421
▁שהגישה	-15422
▁יהודייה	-15423
▁לאזרחיה	-15424
▁שנכנסים	-15425
פתחה	-15426
▁הגן	-15427
▁שכת	-15428
▁שפל	-15429
רוסיה	-15430
▁נובל	-15431
▁שבלי	-15432
▁שהתע	-15433
ירושים	-15434
▁בבעלי	-15435
▁ההיפך	-15436
▁היוצא	-15437
▁המקלט	-15438
▁הפוגע	-15439
▁וקורא	-15440
▁ידברו	-15441
▁לומדי	-15442
▁מיתאר	-15443
▁נילחם	-15444
▁עלייך	-15445
▁איבדנו	-15446
▁ולעבוד	-15447
▁ושאלתי	-15448
▁פוחדים	-15449
▁צבועים	-15450
▁בקצבאות	-15451
▁האמירויות	-15452
לחל	-15453
מכה	-15454
חלטת	-15455
▁כמת	-15456
▁נגע	-15457
▁האוט	-15458
▁הדוק	-15459
▁הובא	-15460
▁לרכב	-15461
▁נזכר	-15462
▁ולשים	-15463
▁מטומט	-15464
▁בדבריו	-15465
▁בהליכי	-15466
▁הבידוד	-15467
▁המכונה	-15468
▁לכוחות	-15469
▁מקצצים	-15470
▁בתקופות	-15471
▁j	-15472
דקו	-15473
נטה	-15474
שיו	-15475
▁כמק	-15476
▁סני	-15477
▁עזב	-15478
▁ראתה	-15479
▁שכמה	-15480
▁אגרות	-15481
▁במעבר	-15482
▁במשטר	-15483
▁הסדרי	-15484
▁הרכוש	-15485
▁להסתה	-15486
▁נחושה	-15487
▁נפלאה	-15488
▁ההערות	-15489
▁ולחשוב	-15490
▁תפיסות	-15491
▁היסודות	-15492
▁ייחודית	-15493
▁באיזושהי	-15494
חלת	-15495
מצת	-15496
רתיע	-15497
▁סיס	-15498
ולמות	-15499
▁בידו	-15500
▁הרחק	-15501
▁מימי	-15502
▁תופס	-15503
מלוגים	-15504
▁במחאה	-15505
▁ולדעת	-15506
▁לאיים	-15507
▁מוסדר	-15508
▁קומבי	-15509
▁שכחנו	-15510
דמוקרטי	-15511
▁אמיצים	-15512
▁יחליטו	-15513
▁להפחתת	-15514
▁להפלות	-15515
▁שממשלה	-15516
▁לאיזשהו	-15517
▁ללוחמים	-15518
▁מכשירים	-15519
▁המינויים	-15520
▁המקסימום	-15521
▁שהתוכנית	-15522
▁בהתיישבות	-15523
כירי	-15524
מלון	-15525
ניתם	-15526
עלמות	-15527
▁הנצח	-15528
▁לבנק	-15529
▁מוטי	-15530
רוניים	-15531
▁בידיו	-15532
▁היתרי	-15533
▁להפיק	-15534
▁בכספים	-15535
▁ברפואה	-15536
▁המוצעת	-15537
▁הקשרים	-15538
▁נפרדות	-15539
▁קהילתי	-15540
זז	-15541
אעש	-15542
כבד	-15543
▁סד	-15544
-30%	-15545
חויב	-15546
יטים	-15547
ייתה	-15548
כרמל	-15549
▁כלב	-15550
▁מפצ	-15551
רוכות	-15552
▁הבול	-15553
▁מקדי	-15554
▁מרעי	-15555
▁סמלי	-15556
▁שילד	-15557
▁שראו	-15558
מחיאות	-15559
רוניות	-15560
▁החגים	-15561
▁נוריד	-15562
▁ריכוז	-15563
▁שהלכו	-15564
▁דיברתם	-15565
▁השתמשו	-15566
▁תמימות	-15567
▁בזהירות	-15568
▁החינוכי	-15569
▁היוזמים	-15570
▁והתעשייה	-15571
▁רטרואקטיבית	-15572
ושש	-15573
לבו	-15574
מיקה	-15575
▁ורג	-15576
צולים	-15577
▁דחתה	-15578
▁הכרת	-15579
▁השער	-15580
▁וראה	-15581
▁מביע	-15582
▁נחוץ	-15583
▁בחוקי	-15584
▁בעומר	-15585
▁השתנו	-15586
▁יורדת	-15587
▁לארבע	-15588
▁להליך	-15589
▁מהשטח	-15590
▁שעלול	-15591
▁תודעה	-15592
▁בתאונה	-15593
▁בתאונת	-15594
▁מהשרים	-15595
▁נולדתי	-15596
▁החקלאית	-15597
▁מסוכנות	-15598
▁והאזרחים	-15599
נאת	-15600
פשים	-15601
▁והנח	-15602
▁ידיו	-15603
▁נוקט	-15604
▁ובאים	-15605
▁ועומד	-15606
▁לדחוף	-15607
▁מגבלה	-15608
▁מצטטת	-15609
▁נשאיר	-15610
▁עבדתי	-15611
▁שבשנה	-15612
▁העישון	-15613
▁ומעולם	-15614
▁כדוגמה	-15615
▁שאישרה	-15616
▁שילדים	-15617
▁הנוגעות	-15618
▁שהצלחנו	-15619
▁אפקטיבית	-15620
שוש	-15621
נגדו	-15622
▁ברב	-15623
▁האתר	-15624
▁עברי	-15625
▁ערוך	-15626
▁במאמץ	-15627
▁הגירה	-15628
▁רקטות	-15629
▁תדברו	-15630
יאשוילי	-15631
▁אצבעות	-15632
▁מצטערת	-15633
▁מרוצים	-15634
▁משתתפת	-15635
▁ספטמבר	-15636
▁צבאיים	-15637
חייבויות	-15638
▁במסירות	-15639
▁הנדרשות	-15640
▁הערוצים	-15641
▁והוועדה	-15642
▁שמבחינת	-15643
▁נורמליים	-15644
▁הוויכוחים	-15645
▁הדמוקרטיים	-15646
▁מושיאשוילי	-15647
זכה	-15648
חוד	-15649
שאה	-15650
רטיס	-15651
▁15%	-15652
▁דרו	-15653
▁ידה	-15654
▁העין	-15655
▁והחל	-15656
▁נשות	-15657
▁שהרב	-15658
▁גזירה	-15659
▁הערכת	-15660
▁השיבה	-15661
▁מתבצע	-15662
▁קריסה	-15663
▁רצונו	-15664
▁הודעתי	-15665
▁המלאכה	-15666
▁צפויים	-15667
▁בארגוני	-15668
▁בחקירות	-15669
▁השתמטות	-15670
▁התנדבות	-15671
▁שלצערנו	-15672
▁כאופוזיציה	-15673
▁דונ	-15674
▁ולך	-15675
▁קמו	-15676
מליים	-15677
▁אגלה	-15678
▁המדד	-15679
▁טיפת	-15680
▁לפרי	-15681
▁מהמס	-15682
▁מעצם	-15683
▁נכסי	-15684
▁שיין	-15685
▁ואיום	-15686
▁קיימה	-15687
▁שנערך	-15688
▁שקראו	-15689
▁להדליק	-15690
▁מייצרת	-15691
▁סביבתי	-15692
▁מוזמנים	-15693
ver	-15694
מיל	-15695
▁59	-15696
בעות	-15697
ריכת	-15698
▁גונ	-15699
▁יוס	-15700
מישהו	-15701
▁גלות	-15702
▁ונתן	-15703
▁לחול	-15704
▁משאב	-15705
▁ניהל	-15706
▁תגיש	-15707
פעילים	-15708
▁בדירה	-15709
▁במרחק	-15710
▁ההטבה	-15711
▁וסיוע	-15712
▁ייהנו	-15713
▁לעקוף	-15714
▁קודמת	-15715
▁באיחור	-15716
▁ההתחלה	-15717
▁הפקרות	-15718
▁הצפוני	-15719
▁ציפיתי	-15720
▁הנקודות	-15721
▁העדיפות	-15722
▁ענייניים	-15723
▁טכנולוגיה	-15724
▁פוליטיקאי	-15725
קרן	-15726
▁7,	-15727
טיפה	-15728
מוטט	-15729
▁2),	-15730
▁חניה	-15731
▁קבלה	-15732
▁גיבוש	-15733
▁וראשי	-15734
▁מחליף	-15735
▁מעשית	-15736
▁שחייב	-15737
▁התרופה	-15738
▁והאוצר	-15739
▁כהונתה	-15740
▁לשאלתך	-15741
▁קדנציה	-15742
▁הנוספות	-15743
▁טכנולוגיות	-15744
'?	-15745
ירוק	-15746
▁כפל	-15747
▁קדי	-15748
-2010	-15749
▁בהתק	-15750
▁הלקח	-15751
▁לשאר	-15752
▁מההס	-15753
▁תחנה	-15754
▁ארבעת	-15755
▁לחייל	-15756
▁מרוצה	-15757
▁שמשהו	-15758
▁הארוכה	-15759
▁הקבועה	-15760
▁לבקרים	-15761
▁למקצוע	-15762
▁לפעולה	-15763
▁לקוחות	-15764
▁שפוגעת	-15765
▁התקיימה	-15766
▁מהותיים	-15767
▁שעומדות	-15768
▁זכויותיו	-15769
-196	-15770
חיית	-15771
צבות	-15772
קראת	-15773
▁2.5	-15774
▁בהט	-15775
והלים	-15776
▁ולהש	-15777
▁ישבה	-15778
▁בהסתה	-15779
▁הפחתה	-15780
▁האמינו	-15781
▁ולעמוד	-15782
▁מהמשרד	-15783
▁ניצבים	-15784
▁מבטיחים	-15785
▁הבריאותי	-15786
וטט	-15787
יפת	-15788
▁רף	-15789
ארבע	-15790
ובהר	-15791
ופתי	-15792
▁17,	-15793
▁מרס	-15794
ונדוס	-15795
▁אומה	-15796
▁להיח	-15797
▁לרשת	-15798
▁פשעי	-15799
יכומים	-15800
▁במעשה	-15801
▁בציון	-15802
▁המשיח	-15803
▁ייאמר	-15804
▁עוזרת	-15805
▁ריקים	-15806
▁שניסו	-15807
▁שעלתה	-15808
▁האבטחה	-15809
▁התחקיר	-15810
▁לפרסום	-15811
▁תמימים	-15812
rael	-15813
ואבת	-15814
יהאד	-15815
▁ונט	-15816
▁מכס	-15817
▁הסוג	-15818
▁זנות	-15819
▁מתעק	-15820
▁אספקת	-15821
▁ארצית	-15822
▁היועמ	-15823
▁ושרים	-15824
▁טעיתי	-15825
▁למנהל	-15826
▁קנייה	-15827
▁האחיות	-15828
▁הנכדים	-15829
▁כשבאים	-15830
▁לתקנות	-15831
▁מצויים	-15832
▁ניקיון	-15833
▁שכנינו	-15834
▁שקופים	-15835
▁המפונים	-15836
▁תירוצים	-15837
▁המורכבות	-15838
שאן	-15839
רכתי	-15840
▁האצ	-15841
▁מצר	-15842
▁אגרת	-15843
▁הרמה	-15844
▁לפעם	-15845
▁מצבה	-15846
▁שהצב	-15847
▁היותו	-15848
▁נזכיר	-15849
▁רעבים	-15850
▁בתפיסה	-15851
▁דולרים	-15852
▁דימונה	-15853
▁הזדהות	-15854
▁החסמים	-15855
▁המנוחה	-15856
▁הצריכה	-15857
מתים	-15858
צהיר	-15859
▁חונ	-15860
וצחים	-15861
▁אחיד	-15862
▁מבטא	-15863
▁ששות	-15864
▁בנימה	-15865
▁האלוף	-15866
▁ויאמר	-15867
▁מחזור	-15868
פתרונות	-15869
▁הדירוג	-15870
▁הצבעתם	-15871
▁למפלגת	-15872
▁לפתחנו	-15873
▁בסבלנות	-15874
▁כשהיינו	-15875
▁שערורייה	-15876
ay	-15877
ודר	-15878
תנו	-15879
come	-15880
לווי	-15881
[...]
